<unk>	0
<s>	0
</s>	0
en	-0
er	-1
in	-2
▁a	-3
▁t	-4
▁d	-5
ie	-6
▁.	-7
▁,	-8
he	-9
on	-10
▁S	-11
ch	-12
te	-13
or	-14
▁the	-15
▁s	-16
nd	-17
es	-18
ti	-19
▁w	-20
le	-21
▁f	-22
▁e	-23
▁in	-24
it	-25
▁"	-26
ar	-27
is	-28
▁c	-29
▁u	-30
an	-31
▁Sie	-32
re	-33
▁o	-34
▁die	-35
ge	-36
▁b	-37
al	-38
▁m	-39
tion	-40
as	-41
▁p	-42
▁ein	-43
▁A	-44
at	-45
us	-46
el	-47
ent	-48
li	-49
▁v	-50
ing	-51
ou	-52
▁B	-53
▁D	-54
▁to	-55
un	-56
▁P	-57
ck	-58
ol	-59
ei	-60
ter	-61
▁F	-62
▁T	-63
om	-64
▁and	-65
ed	-66
▁n	-67
gen	-68
▁W	-69
▁E	-70
▁und	-71
im	-72
ten	-73
il	-74
▁der	-75
ra	-76
den	-77
uf	-78
len	-79
et	-80
▁I	-81
▁k	-82
der	-83
ate	-84
ct	-85
▁z	-86
ri	-87
▁C	-88
▁M	-89
▁an	-90
ro	-91
▁O	-92
se	-93
▁of	-94
de	-95
ur	-96
la	-97
you	-98
um	-99
am	-100
▁h	-101
ers	-102
▁you	-103
▁im	-104
ung	-105
äh	-106
▁auf	-107
▁se	-108
ier	-109
▁de	-110
ben	-111
ich	-112
▁th	-113
▁V	-114
lick	-115
▁K	-116
▁eine	-117
be	-118
▁is	-119
▁das	-120
▁)	-121
▁(	-122
ig	-123
ut	-124
lo	-125
▁aus	-126
▁den	-127
▁R	-128
nen	-129
▁or	-130
pe	-131
st	-132
▁al	-133
ir	-134
orm	-135
ation	-136
▁L	-137
▁g	-138
ählen	-139
je	-140
▁In	-141
▁re	-142
▁G	-143
tel	-144
sch	-145
bje	-146
ption	-147
▁on	-148
ex	-149
ont	-150
▁ver	-151
ot	-152
▁oder	-153
ber	-154
ce	-155
enn	-156
kt	-157
▁zu	-158
▁mit	-159
▁H	-160
if	-161
▁fü	-162
▁be	-163
chen	-164
ver	-165
ext	-166
ly	-167
ad	-168
age	-169
and	-170
▁for	-171
▁um	-172
▁von	-173
che	-174
ön	-175
ve	-176
ow	-177
ab	-178
▁des	-179
▁kön	-180
▁l	-181
▁können	-182
▁N	-183
▁U	-184
▁can	-185
lect	-186
ul	-187
ert	-188
ien	-189
▁wer	-190
▁für	-191
hen	-192
wen	-193
ument	-194
si	-195
▁Z	-196
▁:	-197
ction	-198
▁ch	-199
pp	-200
ith	-201
eld	-202
▁werden	-203
▁ge	-204
ru	-205
▁st	-206
zei	-207
res	-208
▁>	-209
ind	-210
eit	-211
ag	-212
lay	-213
op	-214
▁wir	-215
▁as	-216
ic	-217
feld	-218
hr	-219
licken	-220
▁wird	-221
omp	-222
ile	-223
eren	-224
▁with	-225
▁ex	-226
ts	-227
▁that	-228
▁/	-229
▁An	-230
ff	-231
ok	-232
od	-233
▁dem	-234
ted	-235
las	-236
▁St	-237
men	-238
▁1	-239
form	-240
icht	-241
ern	-242
▁un	-243
▁wählen	-244
ere	-245
ach	-246
ine	-247
rom	-248
ial	-249
ment	-250
og	-251
ungen	-252
ild	-253
gt	-254
▁Sch	-255
ins	-256
▁are	-257
por	-258
▁ne	-259
▁Option	-260
▁fol	-261
ieren	-262
lt	-263
ze	-264
▁do	-265
▁einen	-266
▁from	-267
bject	-268
▁als	-269
▁Be	-270
▁ent	-271
pt	-272
we	-273
▁pro	-274
ust	-275
▁The	-276
▁select	-277
▁ist	-278
▁Ver	-279
ode	-280
ist	-281
ame	-282
ose	-283
olor	-284
eb	-285
int	-286
uch	-287
▁us	-288
arbe	-289
ann	-290
eich	-291
atei	-292
DF	-293
ac	-294
hl	-295
ign	-296
ft	-297
▁it	-298
▁Text	-299
ram	-300
her	-301
ies	-302
▁Se	-303
▁object	-304
▁'	-305
▁PDF	-306
▁click	-307
id	-308
os	-309
cri	-310
ak	-311
ne	-312
ialog	-313
▁wenn	-314
▁er	-315
▁ers	-316
ap	-317
low	-318
fü	-319
▁klicken	-320
hal	-321
▁pan	-322
▁Wenn	-323
▁le	-324
▁file	-325
oose	-326
ces	-327
zu	-328
▁ange	-329
▁cont	-330
▁Bild	-331
▁Ad	-332
obe	-333
ht	-334
sen	-335
ue	-336
isp	-337
ati	-338
▁To	-339
cument	-340
est	-341
ore	-342
▁ad	-343
formation	-344
wenden	-345
▁J	-346
▁panel	-347
edien	-348
▁Wählen	-349
tellen	-350
ox	-351
▁color	-352
ide	-353
mb	-354
▁nicht	-355
wend	-356
▁einer	-357
okument	-358
über	-359
cript	-360
ard	-361
iel	-362
▁Obje	-363
sp	-364
ran	-365
▁con	-366
edienfeld	-367
tell	-368
▁einem	-369
▁text	-370
▁Y	-371
▁unter	-372
▁set	-373
▁Re	-374
pec	-375
ang	-376
▁option	-377
▁document	-378
iert	-379
ib	-380
rü	-381
▁wh	-382
ug	-383
▁Die	-384
▁2	-385
reate	-386
able	-387
▁app	-388
▁Aus	-389
▁fil	-390
lä	-391
igen	-392
ire	-393
▁sp	-394
▁use	-395
qu	-396
▁sh	-397
▁Pro	-398
chten	-399
▁wie	-400
ute	-401
▁über	-402
ting	-403
▁3	-404
eth	-405
ork	-406
Script	-407
▁by	-408
lich	-409
ay	-410
▁at	-411
▁Far	-412
fe	-413
ll	-414
ph	-415
ple	-416
ant	-417
end	-418
▁lo	-419
ppe	-420
▁box	-421
▁po	-422
▁choose	-423
▁bei	-424
scha	-425
▁your	-426
▁You	-427
ort	-428
rib	-429
ound	-430
ord	-431
▁_	-432
iten	-433
▁def	-434
ungs	-435
▁sich	-436
▁i	-437
ain	-438
ruck	-439
ymb	-440
▁comp	-441
pecif	-442
erk	-443
indow	-444
av	-445
▁image	-446
ton	-447
dit	-448
instell	-449
ix	-450
tiv	-451
ens	-452
iew	-453
▁Eben	-454
▁Action	-455
▁create	-456
▁Cont	-457
▁mö	-458
▁me	-459
▁but	-460
di	-461
▁Dokument	-462
ink	-463
▁mo	-464
▁j	-465
▁sie	-466
änd	-467
▁sele	-468
les	-469
ure	-470
ark	-471
eite	-472
▁Um	-473
ribute	-474
▁Adobe	-475
layer	-476
▁Er	-477
ages	-478
▁Zei	-479
▁Sp	-480
lash	-481
iz	-482
▁tool	-483
▁men	-484
ack	-485
▁ar	-486
ymbol	-487
up	-488
ub	-489
▁ActionScript	-490
▁val	-491
zeigt	-492
kte	-493
▁ausge	-494
rag	-495
▁Ar	-496
▁bes	-497
ave	-498
▁Ch	-499
ahl	-500
▁when	-501
cted	-502
▁menu	-503
ppear	-504
ity	-505
lic	-506
▁Form	-507
omm	-508
ion	-509
▁res	-510
ale	-511
▁verwenden	-512
stan	-513
urch	-514
alt	-515
▁vers	-516
ther	-517
ail	-518
ser	-519
▁angezeigt	-520
▁not	-521
▁Select	-522
iste	-523
erkze	-524
tern	-525
▁appear	-526
▁follow	-527
▁if	-528
tim	-529
▁ab	-530
atz	-531
all	-532
oll	-533
ype	-534
▁op	-535
ell	-536
chn	-537
tem	-538
▁diese	-539
tieren	-540
aste	-541
▁Ab	-542
▁Web	-543
▁Window	-544
▁all	-545
▁For	-546
▁Farb	-547
ffe	-548
▁specif	-549
▁-	-550
▁folgen	-551
▁Flash	-552
ke	-553
art	-554
▁page	-555
▁this	-556
flä	-557
isplay	-558
ger	-559
utz	-560
pert	-561
instellungen	-562
ath	-563
00	-564
▁Dialog	-565
ator	-566
▁möchten	-567
▁dialog	-568
yp	-569
weis	-570
ML	-571
eiten	-572
▁Objekt	-573
▁sc	-574
▁ke	-575
ideo	-576
▁En	-577
▁Dialogfeld	-578
wäh	-579
fer	-580
▁add	-581
ixel	-582
▁vor	-583
▁one	-584
▁r	-585
ght	-586
▁hin	-587
▁erstellen	-588
▁De	-589
▁sind	-590
com	-591
▁If	-592
▁following	-593
▁Datei	-594
▁want	-595
ischen	-596
to	-597
ally	-598
site	-599
bar	-600
▁zw	-601
ik	-602
ters	-603
ateien	-604
raph	-605
öff	-606
Datei	-607
▁form	-608
▁en	-609
▁nach	-610
▁pre	-611
enutz	-612
▁dass	-613
▁he	-614
▁then	-615
▁pr	-616
ften	-617
igenscha	-618
▁alle	-619
zen	-620
lie	-621
▁Windows	-622
ah	-623
ktion	-624
aten	-625
aus	-626
arbeiten	-627
ges	-628
row	-629
▁using	-630
ample	-631
port	-632
▁Klicken	-633
▁inc	-634
▁ac	-635
▁folgenden	-636
dem	-637
▁par	-638
formationen	-639
ange	-640
▁auch	-641
ary	-642
▁Ex	-643
▁fram	-644
erkzeug	-645
ner	-646
▁selected	-647
osh	-648
ata	-649
hä	-650
bedienfeld	-651
hren	-652
▁button	-653
onent	-654
wendet	-655
▁Mac	-656
ss	-657
▁Un	-658
sition	-659
▁zum	-660
amen	-661
▁also	-662
▁Contribute	-663
▁web	-664
▁durch	-665
ize	-666
▁fin	-667
▁Vor	-668
▁ausgewäh	-669
rö	-670
▁Ein	-671
▁Sh	-672
▁jed	-673
out	-674
▁see	-675
▁Ne	-676
▁new	-677
ments	-678
ügen	-679
lu	-680
halten	-681
▁display	-682
▁more	-683
▁am	-684
zuf	-685
▁so	-686
▁files	-687
altflä	-688
ult	-689
me	-690
enutzer	-691
ess	-692
röß	-693
enü	-694
erte	-695
hot	-696
▁information	-697
ated	-698
feren	-699
▁Druck	-700
▁OK	-701
aben	-702
▁es	-703
▁objects	-704
ite	-705
▁Seiten	-706
▁zur	-707
▁mehr	-708
▁X	-709
tellt	-710
▁fest	-711
rou	-712
▁aut	-713
ari	-714
▁which	-715
▁Ber	-716
ween	-717
rit	-718
lass	-719
▁Eigenscha	-720
▁ges	-721
cess	-722
esign	-723
▁dann	-724
▁änd	-725
zufügen	-726
▁Schaltflä	-727
iehen	-728
ill	-729
ren	-730
lip	-731
work	-732
ys	-733
ctor	-734
▁only	-735
▁nur	-736
▁options	-737
tive	-738
▁Q	-739
▁Ge	-740
chie	-741
▁19	-742
▁Pf	-743
▁layer	-744
▁Bedienfeld	-745
▁example	-746
▁Menü	-747
▁Al	-748
sion	-749
▁edit	-750
▁other	-751
geben	-752
tz	-753
▁Ausw	-754
ations	-755
▁Informationen	-756
▁li	-757
ass	-758
▁any	-759
▁eines	-760
▁Le	-761
tt	-762
▁Ac	-763
▁SW	-764
▁setting	-765
hre	-766
▁go	-767
andard	-768
▁Seite	-769
▁ww	-770
▁www	-771
ast	-772
ilder	-773
▁sch	-774
▁Qu	-775
tic	-776
▁type	-777
▁Phot	-778
ble	-779
rol	-780
▁comm	-781
▁Po	-782
rück	-783
are	-784
▁SWF	-785
ethod	-786
▁Ebenen	-787
pf	-788
▁into	-789
▁Im	-790
▁ändern	-791
▁Optionen	-792
abe	-793
own	-794
▁Th	-795
▁Gra	-796
▁defin	-797
▁num	-798
our	-799
▁inclu	-800
adobe	-801
inter	-802
▁pres	-803
▁method	-804
ates	-805
▁Ele	-806
gh	-807
fin	-808
ues	-809
.0	-810
du	-811
vent	-812
elle	-813
Design	-814
ick	-815
ied	-816
oshop	-817
zeigen	-818
▁Photoshop	-819
▁applic	-820
▁link	-821
▁InDesign	-822
ask	-823
wählen	-824
▁up	-825
▁name	-826
▁path	-827
▁Symbol	-828
portieren	-829
ige	-830
▁over	-831
▁Fil	-832
▁kann	-833
▁propert	-834
ente	-835
ktu	-836
▁Zeichen	-837
hält	-838
▁value	-839
ispiel	-840
vor	-841
erver	-842
▁each	-843
▁finden	-844
omati	-845
▁content	-846
▁Ü	-847
atur	-848
▁cur	-849
ktiv	-850
▁Ers	-851
ov	-852
▁anzu	-853
▁class	-854
▁Schaltfläche	-855
lace	-856
rä	-857
map	-858
par	-859
ia	-860
rob	-861
▁inter	-862
▁change	-863
▁verwendet	-864
ader	-865
lichen	-866
ierte	-867
weise	-868
▁tran	-869
▁su	-870
th	-871
▁Befe	-872
eichern	-873
▁sty	-874
wendung	-875
arac	-876
▁wur	-877
▁When	-878
tif	-879
view	-880
ault	-881
▁OS	-882
▁pl	-883
schen	-884
▁Auswahl	-885
▁out	-886
▁geben	-887
▁Op	-888
ater	-889
ry	-890
opy	-891
ring	-892
legen	-893
ake	-894
click	-895
ellen	-896
eitere	-897
▁Ebene	-898
hne	-899
robat	-900
itmap	-901
▁la	-902
arn	-903
▁ins	-904
vi	-905
onver	-906
▁Benutzer	-907
▁Objekte	-908
unktion	-909
ließ	-910
▁Farbe	-911
ace	-912
▁Eigenschaften	-913
rift	-914
▁anderen	-915
▁Acrobat	-916
zw	-917
▁its	-918
rich	-919
▁specify	-920
▁Pre	-921
▁Or	-922
ück	-923
rator	-924
lin	-925
▁automati	-926
▁list	-927
ish	-928
ous	-929
▁aktu	-930
▁drag	-931
▁such	-932
ethode	-933
ffect	-934
ield	-935
▁code	-936
em	-937
led	-938
ance	-939
▁bet	-940
röße	-941
▁format	-942
ät	-943
▁instan	-944
aster	-945
▁einz	-946
tes	-947
▁work	-948
enster	-949
▁frame	-950
▁loc	-951
▁open	-952
vel	-953
reen	-954
oc	-955
▁rep	-956
▁settings	-957
wo	-958
ierung	-959
bo	-960
▁no	-961
isten	-962
rund	-963
mente	-964
▁ged	-965
▁indem	-966
▁Inhal	-967
ip	-968
▁Wert	-969
ome	-970
yn	-971
log	-972
rid	-973
▁man	-974
erung	-975
unkt	-976
gabe	-977
▁have	-978
leiste	-979
rent	-980
▁verschie	-981
▁Pixel	-982
▁default	-983
▁bearbeiten	-984
hmen	-985
ssen	-986
▁dif	-987
bjekt	-988
▁This	-989
▁Auf	-990
▁per	-991
ating	-992
mer	-993
▁appears	-994
ime	-995
ng	-996
min	-997
lete	-998
rei	-999
▁dra	-1000
▁Edit	-1001
▁Über	-1002
ven	-1003
▁Fü	-1004
▁Tab	-1005
▁video	-1006
▁aktiv	-1007
▁images	-1008
ase	-1009
▁ausgewähl	-1010
▁gen	-1011
▁Click	-1012
hand	-1013
▁La	-1014
ans	-1015
▁Bilder	-1016
▁view	-1017
▁data	-1018
vid	-1019
▁Vers	-1020
▁Komp	-1021
ight	-1022
ular	-1023
▁Sk	-1024
▁Choose	-1025
▁HT	-1026
▁neu	-1027
geb	-1028
tet	-1029
ibt	-1030
▁zwischen	-1031
▁XML	-1032
▁Set	-1033
▁ass	-1034
raphic	-1035
hn	-1036
pl	-1037
▁haben	-1038
▁Fire	-1039
▁Befehl	-1040
roup	-1041
▁Video	-1042
▁mod	-1043
fol	-1044
nit	-1045
▁Mit	-1046
▁Ihre	-1047
one	-1048
tiert	-1049
▁Website	-1050
▁application	-1051
kn	-1052
▁;	-1053
fter	-1054
▁dire	-1055
▁how	-1056
▁them	-1057
lasse	-1058
ches	-1059
ld	-1060
▁charac	-1061
mo	-1062
timm	-1063
▁Do	-1064
▁Pfad	-1065
▁ziehen	-1066
und	-1067
irst	-1068
works	-1069
füg	-1070
▁Der	-1071
▁current	-1072
▁Reg	-1073
tig	-1074
▁Comp	-1075
▁values	-1076
ress	-1077
right	-1078
▁Ä	-1079
ong	-1080
til	-1081
ced	-1082
▁Fireworks	-1083
▁Ma	-1084
▁pixel	-1085
▁Dateien	-1086
▁Ill	-1087
▁command	-1088
spar	-1089
▁ro	-1090
▁HTML	-1091
▁Namen	-1092
▁Ent	-1093
▁enthält	-1094
vers	-1095
assen	-1096
ör	-1097
knü	-1098
▁Player	-1099
▁andere	-1100
▁tra	-1101
▁same	-1102
▁point	-1103
gin	-1104
ding	-1105
ler	-1106
▁Unter	-1107
▁Bereich	-1108
au	-1109
alen	-1110
ktor	-1111
▁einzel	-1112
▁key	-1113
glich	-1114
its	-1115
▁auswählen	-1116
▁colors	-1117
teu	-1118
▁component	-1119
ags	-1120
▁number	-1121
orre	-1122
order	-1123
ameter	-1124
fen	-1125
▁gra	-1126
urn	-1127
rop	-1128
ade	-1129
▁Par	-1130
▁area	-1131
▁soll	-1132
zeichn	-1133
atch	-1134
▁differ	-1135
▁‐	-1136
layers	-1137
öschen	-1138
▁Illust	-1139
▁av	-1140
och	-1141
▁Kan	-1142
▁Liste	-1143
ded	-1144
ttp	-1145
ufen	-1146
ulti	-1147
▁used	-1148
▁Code	-1149
▁http	-1150
bild	-1151
zeichen	-1152
▁mehrere	-1153
ints	-1154
rie	-1155
▁Änd	-1156
alten	-1157
▁Color	-1158
▁enter	-1159
▁Einstellungen	-1160
▁Beispiel	-1161
▁+	-1162
ob	-1163
net	-1164
▁Date	-1165
aktiv	-1166
etz	-1167
▁fe	-1168
▁Kont	-1169
▁size	-1170
▁öff	-1171
▁Farben	-1172
ctions	-1173
▁different	-1174
fik	-1175
▁FL	-1176
leich	-1177
▁Illustrator	-1178
▁separ	-1179
▁between	-1180
bers	-1181
▁folder	-1182
Dokument	-1183
▁zus	-1184
▁bzw	-1185
▁Tran	-1186
▁apply	-1187
ree	-1188
ierten	-1189
▁print	-1190
imation	-1191
▁they	-1192
▁layers	-1193
fügen	-1194
▁4	-1195
just	-1196
▁Standard	-1197
▁erstellt	-1198
gram	-1199
▁col	-1200
ische	-1201
▁neue	-1202
▁first	-1203
▁qu	-1204
▁symbol	-1205
ape	-1206
▁these	-1207
är	-1208
menü	-1209
▁com	-1210
liche	-1211
▁Das	-1212
▁bot	-1213
▁Ind	-1214
▁dar	-1215
blen	-1216
oun	-1217
▁field	-1218
put	-1219
▁Lay	-1220
ailable	-1221
▁exp	-1222
▁two	-1223
▁Options	-1224
▁Sc	-1225
arbeit	-1226
▁Bes	-1227
▁bef	-1228
▁has	-1229
▁mov	-1230
dition	-1231
▁group	-1232
▁speichern	-1233
▁sli	-1234
▁instance	-1235
▁hinzufügen	-1236
▁pages	-1237
Werkzeug	-1238
eil	-1239
▁dis	-1240
▁anzuzeigen	-1241
▁ra	-1242
▁reg	-1243
▁Aut	-1244
▁bestimm	-1245
▁Mus	-1246
ond	-1247
RL	-1248
ets	-1249
irm	-1250
▁hinzu	-1251
ains	-1252
▁New	-1253
▁File	-1254
schnit	-1255
ise	-1256
ons	-1257
avig	-1258
▁sein	-1259
▁contain	-1260
▁Ord	-1261
▁mark	-1262
▁sub	-1263
▁graphic	-1264
ystem	-1265
▁Schrift	-1266
▁available	-1267
ory	-1268
▁tab	-1269
▁style	-1270
▁beim	-1271
halb	-1272
▁line	-1273
lö	-1274
igh	-1275
▁bel	-1276
mä	-1277
▁All	-1278
▁Schrit	-1279
ray	-1280
▁mü	-1281
▁make	-1282
ktur	-1283
▁website	-1284
▁wieder	-1285
hil	-1286
▁pop	-1287
▁Propert	-1288
▁than	-1289
mod	-1290
farbe	-1291
att	-1292
satz	-1293
stanz	-1294
cur	-1295
ual	-1296
▁control	-1297
uter	-1298
▁ele	-1299
yout	-1300
ister	-1301
▁user	-1302
mark	-1303
▁item	-1304
▁after	-1305
▁müssen	-1306
hrt	-1307
▁event	-1308
lauf	-1309
elder	-1310
▁Position	-1311
defin	-1312
▁Mod	-1313
▁their	-1314
ammen	-1315
ines	-1316
des	-1317
▁Funktion	-1318
wü	-1319
▁chang	-1320
▁effect	-1321
▁property	-1322
▁wurde	-1323
▁selection	-1324
▁Fram	-1325
▁will	-1326
ror	-1327
ubl	-1328
nis	-1329
▁3.0	-1330
ähr	-1331
erten	-1332
▁URL	-1333
▁conver	-1334
▁öffnen	-1335
▁font	-1336
▁gedrück	-1337
▁Bearbeiten	-1338
▁0	-1339
▁®	-1340
▁vari	-1341
▁bas	-1342
▁5	-1343
sche	-1344
▁bar	-1345
▁multi	-1346
ken	-1347
arch	-1348
▁her	-1349
▁ret	-1350
amp	-1351
▁att	-1352
knüpf	-1353
▁expor	-1354
ütz	-1355
▁Kom	-1356
mäß	-1357
▁Arbe	-1358
▁Größe	-1359
isch	-1360
▁Dre	-1361
ustom	-1362
sweise	-1363
othe	-1364
▁his	-1365
▁does	-1366
▁down	-1367
▁Filter	-1368
gefü	-1369
ovie	-1370
▁inst	-1371
back	-1372
▁ausgewählt	-1373
zeige	-1374
▁Geben	-1375
▁Erstellen	-1376
prü	-1377
ference	-1378
▁frames	-1379
▁mask	-1380
▁time	-1381
ration	-1382
▁impor	-1383
Dateien	-1384
arb	-1385
▁back	-1386
rus	-1387
sel	-1388
alis	-1389
uß	-1390
▁zwei	-1391
arge	-1392
▁must	-1393
▁Bitmap	-1394
▁9	-1395
ook	-1396
▁Bildsch	-1397
▁ma	-1398
▁nam	-1399
▁learn	-1400
▁Pl	-1401
▁entsp	-1402
ährend	-1403
▁gener	-1404
In	-1405
other	-1406
kten	-1407
forder	-1408
▁move	-1409
▁Sound	-1410
▁Grafik	-1411
▁ic	-1412
weit	-1413
ingle	-1414
▁Inhalt	-1415
ferences	-1416
ahmen	-1417
ould	-1418
ves	-1419
xt	-1420
ibli	-1421
▁Pop	-1422
▁Open	-1423
▁hand	-1424
▁fun	-1425
▁Daten	-1426
▁Use	-1427
rowser	-1428
schau	-1429
erungen	-1430
line	-1431
ibliothe	-1432
▁ob	-1433
▁rec	-1434
lex	-1435
▁Gru	-1436
▁zurück	-1437
▁play	-1438
▁während	-1439
▁\	-1440
▁bis	-1441
▁mode	-1442
▁Ordner	-1443
▁löschen	-1444
lü	-1445
▁18	-1446
▁keine	-1447
▁ausgewählten	-1448
rary	-1449
zahl	-1450
▁dieser	-1451
▁Verwenden	-1452
▁right	-1453
▁adjust	-1454
▁8	-1455
sform	-1456
▁art	-1457
▁sim	-1458
▁Format	-1459
▁Elemente	-1460
▁vis	-1461
▁Diese	-1462
ptionen	-1463
▁Weitere	-1464
▁Pr	-1465
lassen	-1466
▁konver	-1467
riff	-1468
fügbar	-1469
enden	-1470
▁screen	-1471
▁some	-1472
lig	-1473
heck	-1474
▁Zeit	-1475
els	-1476
▁No	-1477
lage	-1478
▁neuen	-1479
▁Ve	-1480
öffent	-1481
▁Schritte	-1482
ps	-1483
keit	-1484
▁Element	-1485
reign	-1486
onente	-1487
▁Fenster	-1488
▁aber	-1489
▁about	-1490
▁verfügbar	-1491
▁import	-1492
not	-1493
▁Movie	-1494
▁where	-1495
än	-1496
▁%	-1497
▁supp	-1498
board	-1499
▁Popup	-1500
bereich	-1501
uss	-1502
äch	-1503
handen	-1504
▁another	-1505
▁position	-1506
elt	-1507
▁draw	-1508
▁em	-1509
▁place	-1510
▁server	-1511
umente	-1512
fil	-1513
▁On	-1514
inal	-1515
grund	-1516
richt	-1517
▁Vore	-1518
▁may	-1519
▁gleich	-1520
chte	-1521
▁show	-1522
▁auszu	-1523
▁deaktiv	-1524
gel	-1525
old	-1526
blenden	-1527
▁load	-1528
▁resul	-1529
▁vorhanden	-1530
ive	-1531
agraph	-1532
▁Anzeige	-1533
▁changes	-1534
man	-1535
▁single	-1536
▁Vari	-1537
hö	-1538
ged	-1539
▁blog	-1540
pro	-1541
▁sk	-1542
▁pixels	-1543
ste	-1544
umn	-1545
▁Fe	-1546
oriz	-1547
▁Nach	-1548
▁dies	-1549
▁window	-1550
okumente	-1551
▁enthalten	-1552
onf	-1553
punkt	-1554
▁icon	-1555
rechen	-1556
▁Object	-1557
▁Anwendung	-1558
▁Bildschirm	-1559
fa	-1560
ität	-1561
▁200	-1562
ender	-1563
▁Stage	-1564
▁Lin	-1565
fo	-1566
lock	-1567
▁orig	-1568
▁sign	-1569
bind	-1570
▁ohne	-1571
▁properties	-1572
ull	-1573
▁before	-1574
▁multiple	-1575
arte	-1576
▁conne	-1577
ibliothek	-1578
ole	-1579
▁end	-1580
▁save	-1581
instellung	-1582
▁Bü	-1583
round	-1584
onenten	-1585
▁festlegen	-1586
ars	-1587
ublish	-1588
PS	-1589
ings	-1590
▁documents	-1591
▁cor	-1592
telle	-1593
ertif	-1594
sparen	-1595
▁Rahmen	-1596
▁20	-1597
text	-1598
etzen	-1599
reignis	-1600
▁diesem	-1601
ron	-1602
arten	-1603
ative	-1604
link	-1605
▁ste	-1606
▁allow	-1607
▁standard	-1608
Methode	-1609
▁Specif	-1610
▁cannot	-1611
▁within	-1612
▁location	-1613
felder	-1614
dient	-1615
▁weitere	-1616
schließ	-1617
▁clip	-1618
bin	-1619
▁Save	-1620
linien	-1621
urf	-1622
▁we	-1623
nsch	-1624
Objekt	-1625
▁zusammen	-1626
load	-1627
light	-1628
▁contains	-1629
▁fl	-1630
▁FLV	-1631
▁gesp	-1632
▁So	-1633
bene	-1634
alled	-1635
gan	-1636
▁points	-1637
▁include	-1638
read	-1639
▁Ans	-1640
wünsch	-1641
▁seine	-1642
tik	-1643
oden	-1644
▁ihn	-1645
▁Feld	-1646
orizont	-1647
ank	-1648
ateg	-1649
rough	-1650
▁Type	-1651
▁Werte	-1652
ppen	-1653
▁100	-1654
▁6	-1655
Komp	-1656
ever	-1657
eline	-1658
ieb	-1659
▁da	-1660
▁sw	-1661
▁ind	-1662
cally	-1663
▁typ	-1664
datei	-1665
▁rechten	-1666
sing	-1667
▁Add	-1668
aterial	-1669
▁through	-1670
▁hat	-1671
ution	-1672
▁ag	-1673
▁Komment	-1674
▁Su	-1675
igit	-1676
▁jedoch	-1677
▁Werkzeug	-1678
edia	-1679
roke	-1680
▁off	-1681
▁Version	-1682
fram	-1683
▁Bei	-1684
atus	-1685
▁users	-1686
▁automatisch	-1687
▁fill	-1688
▁Create	-1689
▁As	-1690
▁need	-1691
ian	-1692
wert	-1693
▁AI	-1694
▁top	-1695
▁function	-1696
▁Muster	-1697
▁process	-1698
cy	-1699
▁Alt	-1700
▁Besch	-1701
▁Layers	-1702
▁created	-1703
tra	-1704
▁zei	-1705
▁Bühne	-1706
unkte	-1707
ount	-1708
▁gewünsch	-1709
Copy	-1710
land	-1711
ouble	-1712
▁InCopy	-1713
▁Tags	-1714
▁Aktion	-1715
ppel	-1716
hilfe	-1717
ource	-1718
ridge	-1719
▁Ziehen	-1720
▁ed	-1721
isting	-1722
▁separate	-1723
▁CS	-1724
▁Comm	-1725
passen	-1726
▁platz	-1727
▁verschieben	-1728
ause	-1729
laden	-1730
yper	-1731
▁verschieden	-1732
▁Kop	-1733
ither	-1734
▁without	-1735
▁table	-1736
▁left	-1737
rahmen	-1738
schnitt	-1739
roll	-1740
▁get	-1741
ition	-1742
▁both	-1743
auf	-1744
ieder	-1745
▁möglich	-1746
▁horizont	-1747
lüss	-1748
mbed	-1749
▁Inter	-1750
▁begin	-1751
ify	-1752
side	-1753
▁custom	-1754
▁deter	-1755
GB	-1756
▁7	-1757
▁tem	-1758
▁besch	-1759
▁wurden	-1760
▁Vorschau	-1761
▁Sti	-1762
rim	-1763
erkzeu	-1764
▁sound	-1765
ese	-1766
ature	-1767
▁shape	-1768
yperlink	-1769
▁ber	-1770
Taste	-1771
▁inde	-1772
rücken	-1773
▁Ö	-1774
▁Dies	-1775
ression	-1776
ustaste	-1777
way	-1778
▁Effe	-1779
eichert	-1780
ethoden	-1781
▁Maustaste	-1782
ein	-1783
▁Eine	-1784
▁Entw	-1785
▁copy	-1786
▁column	-1787
insel	-1788
pping	-1789
fernen	-1790
ground	-1791
▁character	-1792
eiche	-1793
atches	-1794
sh	-1795
amer	-1796
enter	-1797
▁Steu	-1798
ross	-1799
▁Ereignis	-1800
▁di	-1801
▁Kontur	-1802
▁automatically	-1803
war	-1804
gramm	-1805
▁unterst	-1806
▁y	-1807
werkzeug	-1808
ible	-1809
▁Verknüpf	-1810
zeit	-1811
▁original	-1812
hor	-1813
ynam	-1814
▁most	-1815
▁movie	-1816
val	-1817
▁Tim	-1818
▁Absatz	-1819
▁bitmap	-1820
▁check	-1821
etad	-1822
▁tag	-1823
▁characters	-1824
▁importieren	-1825
ift	-1826
teil	-1827
▁cre	-1828
Klasse	-1829
lation	-1830
St	-1831
folge	-1832
▁Document	-1833
▁Änderungen	-1834
rig	-1835
▁Page	-1836
heit	-1837
▁Öff	-1838
▁Control	-1839
▁Animation	-1840
umb	-1841
▁View	-1842
lüssel	-1843
roß	-1844
alls	-1845
quen	-1846
modus	-1847
▁inspe	-1848
▁Bibliothek	-1849
▁angewendet	-1850
▁ser	-1851
▁pass	-1852
▁addition	-1853
▁dist	-1854
▁Ihr	-1855
▁rem	-1856
▁versch	-1857
lack	-1858
▁Teil	-1859
▁Tool	-1860
▁state	-1861
etzt	-1862
▁Min	-1863
ility	-1864
uring	-1865
▁under	-1866
▁Register	-1867
▁anzeigen	-1868
move	-1869
▁Sli	-1870
▁belieb	-1871
act	-1872
▁was	-1873
▁Ansicht	-1874
▁Instanz	-1875
iele	-1876
▁again	-1877
▁entsprechen	-1878
eicher	-1879
▁Server	-1880
▁delete	-1881
▁preview	-1882
▁Registerk	-1883
buch	-1884
vice	-1885
▁Sty	-1886
▁indi	-1887
lection	-1888
▁high	-1889
▁erforder	-1890
▁Es	-1891
▁ran	-1892
stand	-1893
lied	-1894
▁order	-1895
▁produ	-1896
clip	-1897
ired	-1898
▁And	-1899
▁Bridge	-1900
▁either	-1901
▁auszuwählen	-1902
angu	-1903
▁uses	-1904
▁Parameter	-1905
gebnis	-1906
▁Dokumente	-1907
▁paragraph	-1908
▁aktivieren	-1909
▁Komponenten	-1910
que	-1911
▁version	-1912
gestellt	-1913
idth	-1914
wand	-1915
ides	-1916
▁acc	-1917
hle	-1918
mit	-1919
word	-1920
▁RGB	-1921
▁Rand	-1922
▁ihre	-1923
▁pat	-1924
▁rot	-1925
▁word	-1926
▁assign	-1927
▁Ke	-1928
eder	-1929
▁Con	-1930
▁Index	-1931
▁links	-1932
▁Macint	-1933
▁anwenden	-1934
▁einfügen	-1935
gang	-1936
▁Ihrem	-1937
▁definiert	-1938
▁Verwendung	-1939
ud	-1940
ful	-1941
hol	-1942
iti	-1943
aint	-1944
▁whe	-1945
mäßig	-1946
▁access	-1947
▁angeben	-1948
▁Macintosh	-1949
pr	-1950
▁Hel	-1951
▁war	-1952
▁geöff	-1953
geord	-1954
ormat	-1955
▁requ	-1956
▁aktuellen	-1957
rsp	-1958
▁Di	-1959
zus	-1960
▁Hinter	-1961
ents	-1962
▁End	-1963
▁sec	-1964
ality	-1965
druck	-1966
▁iden	-1967
gefügt	-1968
ock	-1969
ußer	-1970
▁Num	-1971
▁Rei	-1972
tigen	-1973
▁Alle	-1974
▁Skri	-1975
▁redu	-1976
▁navig	-1977
olution	-1978
▁Drag	-1979
pektor	-1980
▁Zeilen	-1981
▁Speichern	-1982
▁komp	-1983
objekt	-1984
▁16	-1985
fenster	-1986
bas	-1987
rush	-1988
▁Show	-1989
▁styles	-1990
erkzeuge	-1991
▁inspector	-1992
▁Stil	-1993
stru	-1994
▁Verbind	-1995
▁existing	-1996
▁oper	-1997
▁Anzahl	-1998
▁Öffnen	-1999
▁Man	-2000
▁next	-2001
▁Enter	-2002
▁export	-2003
bedienfelds	-2004
material	-2005
oom	-2006
use	-2007
ache	-2008
llen	-2009
▁Hil	-2010
▁Sm	-2011
reib	-2012
▁Objekts	-2013
▁gedrückter	-2014
ma	-2015
▁Bre	-2016
gaben	-2017
▁blen	-2018
optionen	-2019
▁Setting	-2020
▁exportieren	-2021
ved	-2022
ging	-2023
▁App	-2024
▁Kon	-2025
▁digit	-2026
An	-2027
▁Füll	-2028
▁inner	-2029
▁specific	-2030
hed	-2031
file	-2032
▁Dokuments	-2033
▁specified	-2034
PE	-2035
ene	-2036
▁Me	-2037
hnen	-2038
▁Blog	-2039
▁bevor	-2040
▁zeigt	-2041
▁artwork	-2042
▁Registerkarte	-2043
▁enc	-2044
▁press	-2045
▁Methode	-2046
NG	-2047
pper	-2048
curity	-2049
▁return	-2050
▁angegeben	-2051
▁gu	-2052
pend	-2053
▁führen	-2054
inspektor	-2055
▁conf	-2056
▁graphics	-2057
tical	-2058
▁index	-2059
▁Gruppe	-2060
utton	-2061
▁filter	-2062
▁Eigenschaft	-2063
▁sm	-2064
▁Fehl	-2065
▁Pinsel	-2066
▁hinzuzufügen	-2067
sten	-2068
▁dec	-2069
▁gesam	-2070
ichtbar	-2071
▁Klasse	-2072
▁entfernen	-2073
▁co	-2074
fern	-2075
arben	-2076
▁Layout	-2077
▁gradient	-2078
▁run	-2079
▁stroke	-2080
▁Hyperlink	-2081
▁clo	-2082
▁entw	-2083
▁indic	-2084
ors	-2085
udi	-2086
▁Mo	-2087
▁kop	-2088
flight	-2089
▁dynam	-2090
▁Farbfeld	-2091
▁beispiel	-2092
ized	-2093
▁veröffent	-2094
▁beispielsweise	-2095
ism	-2096
▁Ausgabe	-2097
▁individ	-2098
▁section	-2099
▁aktiviert	-2100
▁Properties	-2101
Re	-2102
fs	-2103
▁10	-2104
onder	-2105
▁Pres	-2106
tellung	-2107
▁attribute	-2108
ternal	-2109
öglich	-2110
klicken	-2111
arbeitung	-2112
▁elements	-2113
atten	-2114
reich	-2115
format	-2116
▁chann	-2117
▁while	-2118
▁source	-2119
▁gespeichert	-2120
als	-2121
ober	-2122
▁lets	-2123
▁areas	-2124
▁Anwend	-2125
▁descri	-2126
▁mithilfe	-2127
▁gibt	-2128
▁innerhalb	-2129
ppelklicken	-2130
rsprü	-2131
▁Print	-2132
▁legen	-2133
PEG	-2134
olog	-2135
ategor	-2136
anguage	-2137
rsprüng	-2138
▁Raster	-2139
tr	-2140
ele	-2141
▁she	-2142
ließen	-2143
▁error	-2144
▁applied	-2145
▁editing	-2146
▁Bildmaterial	-2147
gren	-2148
▁way	-2149
▁ursprüng	-2150
▁deaktivieren	-2151
▁preset	-2152
▁konvertieren	-2153
▁embed	-2154
cke	-2155
▁tween	-2156
echn	-2157
▁many	-2158
▁Hintergrund	-2159
fang	-2160
▁scale	-2161
▁Bildes	-2162
▁x	-2163
cht	-2164
hes	-2165
▁bl	-2166
▁201	-2167
▁Array	-2168
iss	-2169
weg	-2170
amera	-2171
orrektur	-2172
▁benutzer	-2173
wort	-2174
▁methods	-2175
▁Bereiche	-2176
IF	-2177
ür	-2178
▁Quick	-2179
▁Entwurf	-2180
▁By	-2181
▁sow	-2182
▁cell	-2183
▁Wieder	-2184
ane	-2185
▁2.0	-2186
minist	-2187
▁displays	-2188
▁benutzerdefin	-2189
▁Lib	-2190
▁Out	-2191
▁Zus	-2192
ständ	-2193
▁[	-2194
▁oc	-2195
inen	-2196
▁beh	-2197
▁him	-2198
▁]	-2199
▁sol	-2200
▁whether	-2201
▁includes	-2202
tte	-2203
ails	-2204
▁lib	-2205
ommen	-2206
▁Platz	-2207
▁items	-2208
▁Ergebnis	-2209
▁Property	-2210
atures	-2211
▁draft	-2212
▁lines	-2213
▁called	-2214
▁results	-2215
ützt	-2216
ually	-2217
vious	-2218
örter	-2219
nehmen	-2220
▁search	-2221
▁pattern	-2222
▁applications	-2223
eln	-2224
ker	-2225
pts	-2226
▁Post	-2227
Komponente	-2228
van	-2229
▁Att	-2230
▁Speicher	-2231
▁Movieclip	-2232
▁Popupmenü	-2233
▁Typ	-2234
cause	-2235
▁jede	-2236
rän	-2237
▁mar	-2238
▁Settings	-2239
lagen	-2240
▁verb	-2241
▁Arbeits	-2242
▁Mark	-2243
pecial	-2244
zieren	-2245
▁design	-2246
▁pointer	-2247
ats	-2248
behalten	-2249
▁Preferences	-2250
▁JPEG	-2251
▁Shift	-2252
▁hö	-2253
▁don	-2254
richten	-2255
▁bereit	-2256
▁ID	-2257
▁einzelne	-2258
ists	-2259
▁Durch	-2260
▁during	-2261
▁ersten	-2262
mm	-2263
▁Frames	-2264
▁remove	-2265
▁Verlauf	-2266
po	-2267
▁Name	-2268
▁read	-2269
▁black	-2270
geordne	-2271
▁suchen	-2272
▁system	-2273
▁perform	-2274
ric	-2275
tom	-2276
▁hel	-2277
ables	-2278
unter	-2279
▁Vide	-2280
intrag	-2281
▁targe	-2282
cts	-2283
ette	-2284
ream	-2285
ename	-2286
▁Erweit	-2287
flow	-2288
itel	-2289
eiden	-2290
▁Auto	-2291
erweise	-2292
▁printer	-2293
▁gleichen	-2294
▁einzelnen	-2295
ava	-2296
ice	-2297
▁Tag	-2298
ielen	-2299
seite	-2300
▁tools	-2301
▁Tabelle	-2302
ral	-2303
ared	-2304
sions	-2305
▁Export	-2306
▁creating	-2307
lob	-2308
chor	-2309
▁Ger	-2310
▁upd	-2311
▁Proz	-2312
▁Sign	-2313
weisen	-2314
▁flash	-2315
aske	-2316
ling	-2317
▁ober	-2318
▁incre	-2319
▁model	-2320
▁review	-2321
▁appearance	-2322
▁AIR	-2323
unden	-2324
▁Eing	-2325
ngig	-2326
▁PNG	-2327
▁Tra	-2328
▁let	-2329
▁anim	-2330
ms	-2331
▁&	-2332
igu	-2333
tire	-2334
▁Flä	-2335
▁cons	-2336
▁Richt	-2337
ames	-2338
▁Com	-2339
▁short	-2340
▁toolbar	-2341
▁Methoden	-2342
▁aktualis	-2343
▁background	-2344
hin	-2345
ili	-2346
▁Ges	-2347
▁Ins	-2348
▁kle	-2349
cture	-2350
▁Stru	-2351
▁small	-2352
▁animation	-2353
imen	-2354
▁Hin	-2355
▁later	-2356
▁convert	-2357
oci	-2358
mber	-2359
ning	-2360
esten	-2361
anz	-2362
eiter	-2363
Format	-2364
▁außer	-2365
▁second	-2366
wn	-2367
ctly	-2368
▁Drucken	-2369
▁geöffnet	-2370
tige	-2371
asure	-2372
▁space	-2373
MY	-2374
gle	-2375
▁We	-2376
▁Seg	-2377
▁Navig	-2378
▁Intern	-2379
▁einige	-2380
▁repres	-2381
▁Optional	-2382
▁individual	-2383
▁low	-2384
grenz	-2385
▁Grund	-2386
▁Aktionen	-2387
so	-2388
atri	-2389
aver	-2390
füll	-2391
▁Dat	-2392
▁eas	-2393
▁PDFs	-2394
▁templ	-2395
▁Zeiger	-2396
▁enable	-2397
▁Blo	-2398
▁Gen	-2399
▁vom	-2400
▁String	-2401
henfolge	-2402
▁PostScript	-2403
▁Zeitleiste	-2404
angle	-2405
▁Link	-2406
▁Ziel	-2407
▁schn	-2408
▁types	-2409
▁double	-2410
▁Überprü	-2411
ware	-2412
▁Tast	-2413
▁were	-2414
▁gegen	-2415
▁creates	-2416
▁drücken	-2417
▁previous	-2418
▁ve	-2419
ward	-2420
▁CMY	-2421
▁names	-2422
▁Fehler	-2423
▁Status	-2424
▁Preflight	-2425
▁parameter	-2426
▁ausgewählte	-2427
fung	-2428
▁sav	-2429
▁book	-2430
ätz	-2431
▁Sw	-2432
▁Linien	-2433
▁effects	-2434
▁nachdem	-2435
▁Formular	-2436
cut	-2437
ily	-2438
lies	-2439
▁Für	-2440
▁Frame	-2441
▁Breite	-2442
▁sicher	-2443
▁tim	-2444
benen	-2445
▁Live	-2446
▁Beweg	-2447
▁around	-2448
▁Library	-2449
xim	-2450
lign	-2451
▁Mar	-2452
chteck	-2453
▁three	-2454
▁entire	-2455
▁Werkzeuge	-2456
box	-2457
lös	-2458
asst	-2459
▁Bed	-2460
▁Dream	-2461
▁Command	-2462
eiß	-2463
▁25	-2464
umbn	-2465
uchen	-2466
▁level	-2467
ationen	-2468
▁output	-2469
▁visible	-2470
Po	-2471
▁tru	-2472
▁like	-2473
▁Display	-2474
err	-2475
▁je	-2476
befe	-2477
▁Fol	-2478
▁ben	-2479
▁prin	-2480
▁Pages	-2481
▁Jo	-2482
▁pla	-2483
▁Java	-2484
▁Mask	-2485
weaver	-2486
▁Kommentare	-2487
▁einschließ	-2488
▁Dreamweaver	-2489
▁Fl	-2490
schalt	-2491
▁Tastatur	-2492
▁computer	-2493
▁unterstützt	-2494
raft	-2495
▁CMYK	-2496
▁verw	-2497
▁exten	-2498
▁sichtbar	-2499
gra	-2500
orn	-2501
ness	-2502
rite	-2503
▁Mal	-2504
erungs	-2505
▁string	-2506
▁Klassen	-2507
oben	-2508
▁vid	-2509
ablen	-2510
führen	-2511
▁neben	-2512
▁provid	-2513
▁vertik	-2514
▁Transparen	-2515
▁jedes	-2516
▁range	-2517
▁trans	-2518
▁bottom	-2519
▁replace	-2520
iger	-2521
sible	-2522
▁star	-2523
▁Delete	-2524
▁Konver	-2525
▁Hinzufügen	-2526
red	-2527
▁Col	-2528
▁sel	-2529
▁find	-2530
▁pane	-2531
▁entry	-2532
▁Selection	-2533
seiten	-2534
▁corner	-2535
▁gedrückt	-2536
bel	-2537
tit	-2538
▁Hö	-2539
▁It	-2540
▁wel	-2541
▁zuge	-2542
▁Punkt	-2543
▁Umschalt	-2544
▁15	-2545
chts	-2546
ucht	-2547
▁dam	-2548
▁Gu	-2549
▁spe	-2550
eichnen	-2551
▁lie	-2552
gesch	-2553
▁Path	-2554
▁aktuelle	-2555
▁variable	-2556
alte	-2557
sehen	-2558
▁part	-2559
▁pers	-2560
▁turn	-2561
aktion	-2562
alette	-2563
▁bound	-2564
▁occur	-2565
▁library	-2566
▁Funktionen	-2567
▁Vol	-2568
▁Smart	-2569
gegeben	-2570
▁Specifies	-2571
▁Schaltflächen	-2572
wahl	-2573
▁Red	-2574
▁drei	-2575
▁Bloge	-2576
▁width	-2577
▁Objekten	-2578
Pro	-2579
▁Off	-2580
▁altern	-2581
▁transform	-2582
ical	-2583
▁Neu	-2584
▁best	-2585
▁rest	-2586
▁Pfade	-2587
▁printing	-2588
▁including	-2589
▁Beispielsweise	-2590
vis	-2591
zug	-2592
ough	-2593
▁Import	-2594
▁target	-2595
▁publish	-2596
▁verschiedene	-2597
apes	-2598
▁FLA	-2599
▁Hand	-2600
▁rela	-2601
▁Using	-2602
▁eigen	-2603
oly	-2604
aces	-2605
erst	-2606
▁ger	-2607
iatur	-2608
▁druck	-2609
▁Datein	-2610
▁anchor	-2611
▁suppor	-2612
▁however	-2613
▁ersetzen	-2614
▁components	-2615
40	-2616
000	-2617
Code	-2618
illi	-2619
▁Tex	-2620
▁syn	-2621
▁Stelle	-2622
▁Spalten	-2623
▁Textfeld	-2624
▁platzieren	-2625
alli	-2626
reiben	-2627
▁author	-2628
aps	-2629
fach	-2630
rows	-2631
bersch	-2632
▁along	-2633
▁Computer	-2634
▁Timeline	-2635
endet	-2636
▁Image	-2637
▁jeder	-2638
▁unteren	-2639
werte	-2640
▁Layer	-2641
▁start	-2642
▁connection	-2643
▁Bo	-2644
foli	-2645
icro	-2646
ander	-2647
namen	-2648
▁sever	-2649
▁fields	-2650
▁thumbn	-2651
▁Preview	-2652
▁12	-2653
ries	-2654
▁pack	-2655
▁Proje	-2656
▁gedruck	-2657
cent	-2658
till	-2659
▁Port	-2660
▁groß	-2661
fläche	-2662
▁defined	-2663
▁keyfram	-2664
▁comments	-2665
lag	-2666
▁ink	-2667
ather	-2668
lösung	-2669
▁Ihnen	-2670
▁element	-2671
▁CPS	-2672
▁ihr	-2673
▁muss	-2674
▁because	-2675
▁browser	-2676
▁bestimmten	-2677
amm	-2678
▁Ass	-2679
▁vector	-2680
lossen	-2681
▁linken	-2682
▁necess	-2683
▁geladen	-2684
aw	-2685
kan	-2686
mine	-2687
▁brush	-2688
ameters	-2689
▁Tabellen	-2690
▁pos	-2691
▁ref	-2692
▁call	-2693
▁sure	-2694
bjekte	-2695
▁corre	-2696
▁eingeb	-2697
▁Ändern	-2698
äuf	-2699
akes	-2700
geme	-2701
ored	-2702
eitet	-2703
▁Skal	-2704
▁tags	-2705
ymbole	-2706
▁optim	-2707
version	-2708
▁Vektor	-2709
zeichnet	-2710
▁bestimmte	-2711
ep	-2712
▁int	-2713
▁Dire	-2714
▁definieren	-2715
▁bie	-2716
▁Buch	-2717
▁Tween	-2718
▁fonts	-2719
tierung	-2720
▁Webseite	-2721
▁Schlüssel	-2722
ministrator	-2723
ices	-2724
renn	-2725
punkte	-2726
▁affect	-2727
▁Transform	-2728
gru	-2729
face	-2730
rate	-2731
▁det	-2732
▁Line	-2733
▁Publish	-2734
lei	-2735
▁Zw	-2736
▁Data	-2737
alität	-2738
▁Zeile	-2739
▁diesen	-2740
▁horizontal	-2741
▁Dialogfelds	-2742
oth	-2743
ouch	-2744
▁letz	-2745
▁define	-2746
▁meisten	-2747
▁Variablen	-2748
▁Exportieren	-2749
trl	-2750
omet	-2751
▁paths	-2752
▁partic	-2753
▁measure	-2754
▁folgende	-2755
▁transpar	-2756
mal	-2757
eral	-2758
▁dre	-2759
ently	-2760
icher	-2761
▁look	-2762
timmen	-2763
▁denen	-2764
▁Verschie	-2765
▁imported	-2766
▁attributes	-2767
▁gewünschten	-2768
unk	-2769
▁sn	-2770
▁Rad	-2771
▁red	-2772
▁stru	-2773
ändert	-2774
▁Anfang	-2775
▁center	-2776
▁direkt	-2777
▁security	-2778
Fil	-2779
ited	-2780
ished	-2781
ordin	-2782
▁Ctrl	-2783
▁From	-2784
▁viele	-2785
▁modify	-2786
uli	-2787
▁norm	-2788
vanced	-2789
▁Optim	-2790
▁Drucker	-2791
cing	-2792
here	-2793
amples	-2794
zulegen	-2795
reif	-2796
▁Res	-2797
▁there	-2798
▁associ	-2799
▁zusätz	-2800
äl	-2801
arm	-2802
irc	-2803
ases	-2804
farben	-2805
▁Hilfs	-2806
gerufen	-2807
layback	-2808
▁exported	-2809
apt	-2810
▁Lo	-2811
aries	-2812
▁Slice	-2813
▁erste	-2814
dateien	-2815
▁useful	-2816
▁Einfügen	-2817
ül	-2818
▁Cur	-2819
▁Rol	-2820
führt	-2821
▁those	-2822
istener	-2823
▁insert	-2824
äter	-2825
▁Amer	-2826
▁skal	-2827
▁based	-2828
▁damit	-2829
▁Kanten	-2830
▁identif	-2831
per	-2832
Data	-2833
▁paint	-2834
▁Effekt	-2835
▁slider	-2836
▁determine	-2837
▁additional	-2838
io	-2839
▁ü	-2840
Mail	-2841
mines	-2842
▁näch	-2843
▁Specify	-2844
▁Schriftart	-2845
▁festzulegen	-2846
ird	-2847
▁Rück	-2848
ansicht	-2849
▁eingeben	-2850
▁Component	-2851
▁Einstellung	-2852
▁own	-2853
▁rect	-2854
▁gesch	-2855
▁slice	-2856
▁white	-2857
▁active	-2858
▁erweit	-2859
▁several	-2860
▁contents	-2861
▁möglicherweise	-2862
ritt	-2863
▁Zug	-2864
▁true	-2865
▁added	-2866
▁master	-2867
▁necessary	-2868
ely	-2869
▁sod	-2870
▁arbe	-2871
▁steu	-2872
▁voll	-2873
▁light	-2874
▁Abstand	-2875
▁buttons	-2876
▁arbeiten	-2877
▁entweder	-2878
avi	-2879
▁Ja	-2880
▁ern	-2881
inträ	-2882
taste	-2883
▁Anker	-2884
▁beste	-2885
▁local	-2886
▁Insert	-2887
▁contin	-2888
▁my	-2889
onfigu	-2890
▁edges	-2891
reibung	-2892
▁dieses	-2893
▁kopieren	-2894
▁hinzugefügt	-2895
TP	-2896
eig	-2897
▁Key	-2898
▁Ori	-2899
▁Micro	-2900
▁mouse	-2901
▁sodass	-2902
▁Begrenz	-2903
▁Spra	-2904
▁should	-2905
▁welche	-2906
ufe	-2907
▁bre	-2908
▁min	-2909
▁non	-2910
▁Skript	-2911
▁spread	-2912
▁anpassen	-2913
▁instances	-2914
▁resolution	-2915
▁erforderlich	-2916
no	-2917
arf	-2918
outh	-2919
▁199	-2920
atrix	-2921
▁rechts	-2922
▁Kategor	-2923
▁Korrektur	-2924
▁Tastaturbefe	-2925
▁einschließlich	-2926
med	-2927
▁Up	-2928
less	-2929
udio	-2930
▁Kre	-2931
▁seg	-2932
meins	-2933
▁Gibt	-2934
schied	-2935
▁halten	-2936
▁Verbindung	-2937
▁Anwendungen	-2938
PI	-2939
teg	-2940
aker	-2941
atic	-2942
▁Art	-2943
zeich	-2944
▁might	-2945
▁Möglich	-2946
▁classes	-2947
▁directly	-2948
▁displayed	-2949
▁veröffentlichen	-2950
Er	-2951
▁Bl	-2952
▁Rep	-2953
▁größ	-2954
▁named	-2955
▁organ	-2956
▁until	-2957
▁Shader	-2958
Mod	-2959
bes	-2960
▁How	-2961
elect	-2962
▁common	-2963
▁oberen	-2964
arbeitet	-2965
▁channel	-2966
▁working	-2967
Time	-2968
▁Gly	-2969
riften	-2970
▁initi	-2971
▁überprü	-2972
▁beibehalten	-2973
ax	-2974
eut	-2975
▁17	-2976
uper	-2977
bilder	-2978
▁Struktur	-2979
▁commands	-2980
▁Dateinamen	-2981
größ	-2982
ilit	-2983
rast	-2984
linie	-2985
rieben	-2986
tierten	-2987
▁Wörter	-2988
▁später	-2989
▁profile	-2990
▁containing	-2991
▁Kur	-2992
▁Höhe	-2993
▁With	-2994
▁spot	-2995
stanzen	-2996
▁depend	-2997
▁provides	-2998
▁aufgerufen	-2999
▁Speicherort	-3000
ohl	-3001
gele	-3002
▁Ser	-3003
ading	-3004
▁erhö	-3005
▁send	-3006
ftware	-3007
▁Ihrer	-3008
▁cross	-3009
▁preser	-3010
▁Miniatur	-3011
▁erhalten	-3012
▁installi	-3013
▁shortcut	-3014
▁Is	-3015
ures	-3016
fernt	-3017
▁Stand	-3018
▁Textab	-3019
▁Vector	-3020
zeichnis	-3021
▁gedruckt	-3022
bst	-3023
ilt	-3024
▁Chr	-3025
▁last	-3026
▁Zugriff	-3027
▁deselect	-3028
ogen	-3029
asing	-3030
▁even	-3031
▁certif	-3032
▁Löschen	-3033
zustellen	-3034
▁Ergebnisse	-3035
hlen	-3036
▁Sub	-3037
größe	-3038
bility	-3039
hängig	-3040
server	-3041
▁Stile	-3042
▁Formen	-3043
▁System	-3044
▁50	-3045
▁He	-3046
ilar	-3047
ahlen	-3048
based	-3049
orial	-3050
▁Hist	-3051
▁Lese	-3052
▁four	-3053
▁hold	-3054
▁Origin	-3055
iet	-3056
ched	-3057
änge	-3058
▁Dis	-3059
▁fre	-3060
▁Fest	-3061
genden	-3062
▁Exten	-3063
▁Abschnitt	-3064
▁JavaScript	-3065
▁doppelklicken	-3066
ede	-3067
▁GIF	-3068
eigen	-3069
▁side	-3070
▁Linie	-3071
▁Charac	-3072
▁weiter	-3073
▁gemeins	-3074
▁support	-3075
▁Komponente	-3076
lang	-3077
achten	-3078
▁ander	-3079
▁track	-3080
▁Sicher	-3081
▁shapes	-3082
▁gesamte	-3083
▁transparent	-3084
det	-3085
▁Bas	-3086
▁hig	-3087
aling	-3088
▁Maus	-3089
▁edge	-3090
informationen	-3091
Filter	-3092
▁language	-3093
▁parameters	-3094
▁transparen	-3095
seinstellungen	-3096
olyg	-3097
iesen	-3098
Playback	-3099
▁schnell	-3100
tead	-3101
Event	-3102
ctory	-3103
ropri	-3104
▁Vollt	-3105
▁shows	-3106
▁seinen	-3107
richtung	-3108
▁verknüpf	-3109
vas	-3110
▁kn	-3111
▁wo	-3112
ones	-3113
▁Aug	-3114
▁ign	-3115
chein	-3116
▁Style	-3117
ational	-3118
▁Bildern	-3119
▁drawing	-3120
▁filename	-3121
▁template	-3122
▁ausgeführt	-3123
ähn	-3124
code	-3125
lear	-3126
▁Pap	-3127
▁Film	-3128
▁disp	-3129
▁Americ	-3130
▁inside	-3131
▁script	-3132
▁instead	-3133
▁quality	-3134
▁Auflösung	-3135
▁Transparenz	-3136
▁transparency	-3137
uz	-3138
üt	-3139
itt	-3140
adow	-3141
▁Net	-3142
▁Sim	-3143
eichen	-3144
▁lower	-3145
▁bietet	-3146
▁bereits	-3147
▁formats	-3148
▁Programm	-3149
▁appropri	-3150
hm	-3151
ius	-3152
ways	-3153
▁Her	-3154
hinder	-3155
▁would	-3156
▁Grafiken	-3157
▁formatting	-3158
by	-3159
soft	-3160
▁ähn	-3161
ession	-3162
fügung	-3163
▁Legen	-3164
▁Arbeit	-3165
▁layout	-3166
▁loaded	-3167
▁Befehle	-3168
▁direction	-3169
nah	-3170
une	-3171
▁Em	-3172
ific	-3173
vices	-3174
▁Metad	-3175
▁appropriate	-3176
▁Bedienfeldmenü	-3177
co	-3178
gth	-3179
▁ax	-3180
▁See	-3181
chron	-3182
▁Zoom	-3183
▁Maske	-3184
▁Tabul	-3185
▁becom	-3186
▁laden	-3187
▁August	-3188
▁parent	-3189
▁Inhalte	-3190
▁desired	-3191
▁stellen	-3192
▁Microsoft	-3193
▁Verfügung	-3194
▁FLVPlayback	-3195
▁Umschalttaste	-3196
▁Kap	-3197
rowse	-3198
▁Info	-3199
▁saved	-3200
▁words	-3201
▁geändert	-3202
ium	-3203
raw	-3204
▁Wh	-3205
▁EPS	-3206
▁hal	-3207
inkel	-3208
ferenz	-3209
ltaste	-3210
geführt	-3211
▁Schwar	-3212
▁sollen	-3213
▁against	-3214
▁Internet	-3215
▁Lesezeichen	-3216
bt	-3217
ml	-3218
▁Pan	-3219
folio	-3220
äufig	-3221
reifen	-3222
selben	-3223
auswahl	-3224
▁allows	-3225
▁Verknüpfung	-3226
▁konvertiert	-3227
ash	-3228
ove	-3229
riti	-3230
▁Rot	-3231
▁cli	-3232
tember	-3233
▁Start	-3234
ierungs	-3235
▁Original	-3236
▁preferences	-3237
▁Sep	-3238
▁sor	-3239
▁mess	-3240
▁sets	-3241
▁remov	-3242
▁beiden	-3243
▁linked	-3244
Eigenscha	-3245
▁entfernt	-3246
arbeitungs	-3247
▁QuickTime	-3248
▁reference	-3249
ley	-3250
ziel	-3251
▁log	-3252
▁Deck	-3253
▁dest	-3254
▁These	-3255
▁1.	-3256
apan	-3257
cken	-3258
down	-3259
▁Wah	-3260
▁mag	-3261
▁squ	-3262
agram	-3263
▁Fran	-3264
▁hide	-3265
▁test	-3266
▁Defin	-3267
▁Kante	-3268
▁array	-3269
ination	-3270
▁Reader	-3271
▁einfach	-3272
▁package	-3273
▁features	-3274
▁beliebigen	-3275
tw	-3276
los	-3277
rat	-3278
▁Inc	-3279
▁Work	-3280
▁oben	-3281
▁allen	-3282
▁blend	-3283
▁Change	-3284
▁Profil	-3285
▁applies	-3286
▁digital	-3287
▁Hilfslinien	-3288
▁deaktiviert	-3289
▁Verknüpfungen	-3290
arde	-3291
▁Bar	-3292
idden	-3293
kraft	-3294
▁Kenn	-3295
▁hier	-3296
▁numer	-3297
▁Altern	-3298
▁steuern	-3299
▁Variable	-3300
▁vertical	-3301
arstellung	-3302
▁September	-3303
▁vollständ	-3304
▁alph	-3305
▁Regel	-3306
▁immer	-3307
▁large	-3308
▁Effekte	-3309
▁Eingabe	-3310
▁Symbole	-3311
▁address	-3312
▁download	-3313
▁currently	-3314
▁Blogeintrag	-3315
arp	-3316
pon	-3317
▁ho	-3318
izes	-3319
liste	-3320
velop	-3321
▁Each	-3322
▁Mess	-3323
▁full	-3324
▁glob	-3325
action	-3326
▁render	-3327
▁optional	-3328
▁converted	-3329
▁Reihenfolge	-3330
▁°	-3331
fügt	-3332
time	-3333
▁Cue	-3334
▁mer	-3335
▁John	-3336
▁Trans	-3337
▁marks	-3338
genommen	-3339
ool	-3340
ume	-3341
▁bu	-3342
itor	-3343
knüp	-3344
onen	-3345
stra	-3346
▁frü	-3347
▁well	-3348
▁align	-3349
▁input	-3350
▁Suchen	-3351
▁verknüp	-3352
▁gewünschte	-3353
ient	-3354
ätze	-3355
acity	-3356
ungsp	-3357
▁grid	-3358
▁main	-3359
▁rich	-3360
▁span	-3361
▁Zertif	-3362
▁motion	-3363
▁expression	-3364
zeu	-3365
angen	-3366
▁site	-3367
▁Ihren	-3368
▁Tools	-3369
▁techn	-3370
agement	-3371
izieren	-3372
▁dynamic	-3373
▁numbers	-3374
▁festgele	-3375
▁Veröffent	-3376
▁außerhalb	-3377
▁associated	-3378
▁angegebenen	-3379
▁ursprünglichen	-3380
▁lr	-3381
part	-3382
▁dup	-3383
bogen	-3384
▁Anim	-3385
▁Legt	-3386
▁lrvid	-3387
▁Custom	-3388
▁behavi	-3389
▁Inhalts	-3390
▁vorhandenen	-3391
ots	-3392
iver	-3393
▁196	-3394
wiesen	-3395
▁exter	-3396
▁maxim	-3397
▁unten	-3398
▁reader	-3399
▁Character	-3400
aket	-3401
cale	-3402
gers	-3403
▁Eng	-3404
icate	-3405
▁help	-3406
▁stop	-3407
ischer	-3408
▁Graust	-3409
▁erneut	-3410
▁groups	-3411
▁height	-3412
▁special	-3413
▁symbols	-3414
▁Kommentar	-3415
▁Wahltaste	-3416
▁verschoben	-3417
fahren	-3418
tierte	-3419
▁aufge	-3420
utorial	-3421
▁Adjust	-3422
▁hinaus	-3423
▁swatch	-3424
▁schließen	-3425
apel	-3426
▁Deb	-3427
▁ear	-3428
isted	-3429
▁Word	-3430
▁häufig	-3431
▁Formati	-3432
▁However	-3433
▁filters	-3434
▁percent	-3435
▁external	-3436
▁Hyperlinks	-3437
▁Ra	-3438
chse	-3439
führ	-3440
▁equ	-3441
▁vier	-3442
▁password	-3443
cel	-3444
licy	-3445
▁bra	-3446
▁valid	-3447
▁Styles	-3448
▁action	-3449
▁senden	-3450
▁columns	-3451
▁similar	-3452
erstellen	-3453
▁Advanced	-3454
▁Swatches	-3455
▁Textrahmen	-3456
ha	-3457
lung	-3458
löst	-3459
▁Tei	-3460
▁cho	-3461
▁len	-3462
Error	-3463
▁above	-3464
▁below	-3465
▁Benutz	-3466
▁complete	-3467
▁Deckkraft	-3468
▁Standarde	-3469
▁structure	-3470
eg	-3471
rg	-3472
sc	-3473
tre	-3474
pped	-3475
▁Ecke	-3476
▁Make	-3477
▁inser	-3478
▁Punkte	-3479
▁disable	-3480
▁represent	-3481
daten	-3482
deten	-3483
nahme	-3484
▁Copy	-3485
Button	-3486
▁doesn	-3487
▁match	-3488
▁proje	-3489
▁darauf	-3490
▁sowohl	-3491
▁printed	-3492
▁controls	-3493
vide	-3494
▁mon	-3495
indet	-3496
▁exce	-3497
▁After	-3498
▁Right	-3499
▁paste	-3500
▁Spalte	-3501
▁higher	-3502
▁texture	-3503
▁verfügt	-3504
▁Verlaufs	-3505
▁embedded	-3506
▁zeichnen	-3507
▁Graustufen	-3508
son	-3509
cket	-3510
onal	-3511
▁Des	-3512
chsel	-3513
marke	-3514
ublic	-3515
▁been	-3516
▁thumbnail	-3517
itch	-3518
▁Loc	-3519
▁lok	-3520
▁tri	-3521
aking	-3522
etten	-3523
▁Ende	-3524
▁Help	-3525
rieren	-3526
stelle	-3527
▁Modus	-3528
▁Conver	-3529
▁sequen	-3530
▁sollten	-3531
▁exportiert	-3532
äle	-3533
Type	-3534
sive	-3535
▁ble	-3536
▁fal	-3537
enten	-3538
gruppe	-3539
▁fügen	-3540
▁maint	-3541
▁Browser	-3542
▁Aufgaben	-3543
▁beliebige	-3544
▁Schriftarten	-3545
ery	-3546
pril	-3547
▁gef	-3548
▁wen	-3549
▁being	-3550
▁drucken	-3551
▁Attribute	-3552
▁Verhalten	-3553
▁anzuwenden	-3554
▁verschiedenen	-3555
▁Ed	-3556
ocus	-3557
very	-3558
▁Nur	-3559
erren	-3560
▁Then	-3561
▁April	-3562
▁Quell	-3563
▁höher	-3564
▁Number	-3565
▁selbst	-3566
▁included	-3567
pi	-3568
ses	-3569
obei	-3570
▁smo	-3571
▁sur	-3572
gehen	-3573
sider	-3574
▁Beim	-3575
▁dark	-3576
suchen	-3577
▁opens	-3578
▁wobei	-3579
▁Button	-3580
▁Vorlage	-3581
▁einzeln	-3582
▁Signatur	-3583
▁adjustment	-3584
▁conversion	-3585
my	-3586
sk	-3587
bed	-3588
lit	-3589
aupt	-3590
▁ter	-3591
▁Aust	-3592
▁Pers	-3593
▁Actions	-3594
▁prevent	-3595
inn	-3596
▁Ro	-3597
orth	-3598
ving	-3599
▁Mag	-3600
▁could	-3601
lar	-3602
wer	-3603
gten	-3604
hung	-3605
ions	-3606
tions	-3607
gleich	-3608
kungen	-3609
▁Debug	-3610
▁ihrer	-3611
ization	-3612
▁Schnit	-3613
▁placed	-3614
▁entspricht	-3615
ina	-3616
ligh	-3617
▁cal	-3618
ainer	-3619
▁Alph	-3620
▁Down	-3621
▁Flex	-3622
▁Lauf	-3623
▁Zeigt	-3624
▁close	-3625
▁extra	-3626
▁Output	-3627
▁device	-3628
▁Vorgabe	-3629
▁unterschied	-3630
fl	-3631
Sch	-3632
dig	-3633
set	-3634
▁11	-3635
▁Bel	-3636
▁Per	-3637
▁map	-3638
▁rul	-3639
▁who	-3640
▁Strg	-3641
▁verk	-3642
kehren	-3643
▁inten	-3644
▁combin	-3645
▁specifies	-3646
▁verhinder	-3647
annt	-3648
odes	-3649
▁Ton	-3650
izing	-3651
ützen	-3652
▁circ	-3653
cripts	-3654
▁Mitte	-3655
▁dimen	-3656
zeichnen	-3657
▁Allgeme	-3658
▁keyboard	-3659
▁relative	-3660
▁workflow	-3661
Eigenschaft	-3662
▁Wiedergabe	-3663
▁particular	-3664
▁zugewiesen	-3665
▁compression	-3666
▁Dar	-3667
▁Def	-3668
▁Hal	-3669
▁Ste	-3670
▁inv	-3671
igure	-3672
omain	-3673
▁Glyp	-3674
Object	-3675
yscale	-3676
▁Weise	-3677
▁overla	-3678
ungsbild	-3679
geordneten	-3680
schließend	-3681
▁Versionen	-3682
▁indicates	-3683
▁standardmäß	-3684
▁Anzeigeobjekt	-3685
az	-3686
uft	-3687
ager	-3688
▁Bet	-3689
▁Und	-3690
▁cop	-3691
▁pri	-3692
▁tit	-3693
entyp	-3694
heben	-3695
print	-3696
▁Haupt	-3697
▁seiner	-3698
eigenscha	-3699
▁Extended	-3700
▁mehreren	-3701
▁Beschrift	-3702
▁Importieren	-3703
▁entsprechenden	-3704
fad	-3705
wür	-3706
Clip	-3707
esen	-3708
ktop	-3709
temp	-3710
iment	-3711
igröße	-3712
▁graph	-3713
▁Design	-3714
▁Double	-3715
▁Gruppen	-3716
▁Rechteck	-3717
▁versions	-3718
▁vorhandene	-3719
ders	-3720
▁umf	-3721
Maker	-3722
ivers	-3723
▁Groß	-3724
▁Only	-3725
ichtet	-3726
▁handle	-3727
▁vornehmen	-3728
▁dargestellt	-3729
gte	-3730
ship	-3731
▁erm	-3732
▁gre	-3733
eight	-3734
▁skin	-3735
▁Felder	-3736
▁anderes	-3737
▁opacity	-3738
▁program	-3739
▁Richtung	-3740
▁platziert	-3741
▁Dateigröße	-3742
▁ausblenden	-3743
▁Begrenzungs	-3744
llt	-3745
sti	-3746
ombin	-3747
▁just	-3748
▁Shape	-3749
▁integ	-3750
flächen	-3751
▁Fläche	-3752
▁result	-3753
▁sample	-3754
▁outside	-3755
fts	-3756
liz	-3757
Hand	-3758
lein	-3759
ärke	-3760
▁fix	-3761
▁gek	-3762
▁row	-3763
▁Wort	-3764
tische	-3765
▁Media	-3766
tically	-3767
▁Prozent	-3768
▁feature	-3769
Bedienfeld	-3770
▁installed	-3771
▁zusätzliche	-3772
MP	-3773
Ver	-3774
pre	-3775
▁198	-3776
falls	-3777
ichts	-3778
▁legt	-3779
▁once	-3780
▁Kanal	-3781
▁Reihe	-3782
▁Touch	-3783
▁einfa	-3784
▁often	-3785
▁Nachdem	-3786
▁besonder	-3787
▁Metadaten	-3788
▁?	-3789
▁At	-3790
▁kon	-3791
tisch	-3792
▁final	-3793
▁story	-3794
inträge	-3795
▁shared	-3796
▁Überfüll	-3797
▁importiert	-3798
▁Standardmäßig	-3799
ipp	-3800
itz	-3801
kes	-3802
▁30	-3803
▁US	-3804
aper	-3805
lese	-3806
wise	-3807
▁197	-3808
▁Val	-3809
ichte	-3810
rufen	-3811
zeile	-3812
▁Conne	-3813
▁Titel	-3814
▁Stapel	-3815
▁drehen	-3816
▁überla	-3817
▁artboard	-3818
▁befindet	-3819
▁variables	-3820
ho	-3821
Bar	-3822
fix	-3823
List	-3824
ested	-3825
icker	-3826
zogen	-3827
▁fort	-3828
igkeit	-3829
▁recei	-3830
▁Office	-3831
▁always	-3832
▁Flächen	-3833
▁Untersch	-3834
▁Websites	-3835
▁bestimmt	-3836
▁bookmark	-3837
▁bounding	-3838
▁determines	-3839
ye	-3840
▁13	-3841
▁Da	-3842
pect	-3843
▁mis	-3844
▁nütz	-3845
finden	-3846
ordner	-3847
▁acces	-3848
▁amount	-3849
▁border	-3850
▁expand	-3851
▁hidden	-3852
▁Segment	-3853
▁regular	-3854
▁befinden	-3855
▁possible	-3856
▁Bewegungs	-3857
geschlossen	-3858
reg	-3859
pace	-3860
▁194	-3861
▁Car	-3862
▁Dup	-3863
ready	-3864
▁Book	-3865
▁Clip	-3866
▁Over	-3867
▁lock	-3868
▁block	-3869
▁erzeu	-3870
▁metad	-3871
▁Modell	-3872
▁across	-3873
▁testen	-3874
abhängig	-3875
▁entries	-3876
▁require	-3877
▁gesamten	-3878
▁metadata	-3879
rea	-3880
orld	-3881
rieb	-3882
▁Cre	-3883
▁Fill	-3884
▁phot	-3885
aption	-3886
▁Kopie	-3887
▁boxes	-3888
osition	-3889
▁Anweis	-3890
▁corres	-3891
▁raster	-3892
▁General	-3893
▁entlang	-3894
▁Erschein	-3895
▁selecting	-3896
▁signature	-3897
▁Symbolleiste	-3898
ris	-3899
nung	-3900
staben	-3901
▁child	-3902
▁sowie	-3903
formate	-3904
▁errors	-3905
▁beschrän	-3906
▁eingefügt	-3907
▁Components	-3908
▁Darstellung	-3909
SC	-3910
mp	-3911
ana	-3912
▁Pen	-3913
atter	-3914
igung	-3915
▁disc	-3916
▁rele	-3917
symbol	-3918
▁Impor	-3919
ategory	-3920
▁Editor	-3921
▁Render	-3922
▁proble	-3923
▁actions	-3924
▁defines	-3925
▁Zertifik	-3926
IC	-3927
alk	-3928
gibt	-3929
plor	-3930
▁bit	-3931
licht	-3932
▁Inst	-3933
▁Neue	-3934
▁Schw	-3935
▁zoom	-3936
achtel	-3937
halter	-3938
▁Arten	-3939
▁arrow	-3940
methode	-3941
▁needed	-3942
▁schwar	-3943
▁American	-3944
▁aktualisieren	-3945
hän	-3946
▁fo	-3947
acht	-3948
Point	-3949
gress	-3950
▁Warn	-3951
▁axis	-3952
leiche	-3953
lemente	-3954
rimierung	-3955
▁blending	-3956
▁Alternati	-3957
▁ausgeblen	-3958
▁Optionsleiste	-3959
▁Bildschirmlese	-3960
umm	-3961
ikan	-3962
▁FTP	-3963
▁Vis	-3964
▁War	-3965
▁kur	-3966
▁neg	-3967
anner	-3968
chnit	-3969
▁Bere	-3970
▁Oper	-3971
keiten	-3972
lement	-3973
olygon	-3974
▁clips	-3975
▁quick	-3976
stellen	-3977
▁message	-3978
▁consider	-3979
▁Instanzen	-3980
▁authoring	-3981
▁Ausrichtung	-3982
bre	-3983
komp	-3984
osing	-3985
vider	-3986
▁Satz	-3987
▁Files	-3988
▁already	-3989
▁nützlich	-3990
▁überprüfen	-3991
▁installiert	-3992
▁Beschreibung	-3993
aff	-3994
bor	-3995
lät	-3996
▁El	-3997
sich	-3998
▁Can	-3999
acing	-4000
heren	-4001
▁Noti	-4002
▁hard	-4003
▁label	-4004
▁upper	-4005
▁Strich	-4006
▁shadow	-4007
ctionary	-4008
▁Schwarz	-4009
▁Sprache	-4010
▁comment	-4011
▁develop	-4012
▁dragging	-4013
AD	-4014
cu	-4015
xy	-4016
tok	-4017
zäh	-4018
▁..	-4019
▁PS	-4020
Menü	-4021
▁Mon	-4022
▁complex	-4023
▁synchron	-4024
▁Skalierung	-4025
▁standardmäßig	-4026
Ad	-4027
ards	-4028
halt	-4029
ower	-4030
scht	-4031
▁Jan	-4032
▁lar	-4033
ribut	-4034
▁adds	-4035
▁empf	-4036
▁repe	-4037
▁Check	-4038
▁angle	-4039
Instanz	-4040
▁Textur	-4041
▁Diagram	-4042
▁highligh	-4043
▁Tabulator	-4044
▁bestimmen	-4045
▁Möglichkeit	-4046
▁Doppelklicken	-4047
air	-4048
aden	-4049
trag	-4050
▁Syn	-4051
hören	-4052
ulate	-4053
▁ihren	-4054
▁repla	-4055
▁Formul	-4056
▁editor	-4057
▁vorher	-4058
▁übersch	-4059
▁#	-4060
mus	-4061
▁gi	-4062
iden	-4063
ique	-4064
omin	-4065
ached	-4066
▁Gerä	-4067
▁stri	-4068
licate	-4069
spunkt	-4070
▁Apply	-4071
▁Other	-4072
▁Zelle	-4073
leisten	-4074
▁basieren	-4075
▁keyframe	-4076
▁Auswählen	-4077
▁bearbeitet	-4078
ald	-4079
▁Bu	-4080
▁Bra	-4081
▁act	-4082
▁führt	-4083
▁Mittel	-4084
▁Papier	-4085
▁besten	-4086
▁update	-4087
▁rotation	-4088
▁Dokumenten	-4089
▁Farbfelder	-4090
▁Verschieben	-4091
16	-4092
IP	-4093
▁=	-4094
ump	-4095
▁ri	-4096
Text	-4097
▁Exp	-4098
▁Gal	-4099
▁Zum	-4100
lated	-4101
▁Some	-4102
▁defe	-4103
▁gest	-4104
plorer	-4105
▁Gesch	-4106
▁Japan	-4107
hältnis	-4108
▁machen	-4109
▁correct	-4110
▁folders	-4111
▁playback	-4112
▁Paragraph	-4113
▁insertion	-4114
▁dimensions	-4115
▁einblenden	-4116
▁Bearbeitung	-4117
eigenschaften	-4118
oli	-4119
zie	-4120
▁Cl	-4121
fore	-4122
▁ens	-4123
ators	-4124
▁Such	-4125
▁focus	-4126
objekte	-4127
▁guides	-4128
▁normal	-4129
▁ändert	-4130
handbuch	-4131
▁Symbols	-4132
▁ersetzt	-4133
▁presets	-4134
▁provide	-4135
▁Aussehen	-4136
▁OpenType	-4137
▁Sicherheit	-4138
▁description	-4139
Box	-4140
iled	-4141
▁var	-4142
icode	-4143
osite	-4144
▁sort	-4145
apture	-4146
betten	-4147
folgen	-4148
▁appro	-4149
▁paper	-4150
▁scroll	-4151
▁Kapitel	-4152
▁Kennwort	-4153
▁Qualität	-4154
▁anstelle	-4155
▁digitale	-4156
▁Kategorie	-4157
▁skalieren	-4158
▁verwalten	-4159
▁Bedienfelds	-4160
füge	-4161
head	-4162
ogram	-4163
▁Find	-4164
▁Hier	-4165
▁plug	-4166
▁simp	-4167
▁email	-4168
▁restri	-4169
▁Language	-4170
▁clicking	-4171
▁Webseiten	-4172
▁festgelegt	-4173
let	-4174
mis	-4175
▁II	-4176
meld	-4177
▁Fre	-4178
▁Lab	-4179
▁Tem	-4180
▁adj	-4181
space	-4182
▁Next	-4183
▁Rich	-4184
▁nied	-4185
▁Place	-4186
▁lists	-4187
▁Videos	-4188
▁Projekt	-4189
▁Prozess	-4190
▁maintain	-4191
▁placehol	-4192
▁tutorial	-4193
Ar	-4194
Up	-4195
dete	-4196
ächst	-4197
▁Free	-4198
▁URLs	-4199
▁Links	-4200
▁Schie	-4201
Funktion	-4202
▁Kontext	-4203
▁komplex	-4204
▁ausgelöst	-4205
▁rectangle	-4206
▁definition	-4207
▁aktualisiert	-4208
Lo	-4209
yc	-4210
wir	-4211
äre	-4212
▁Te	-4213
oren	-4214
▁Cal	-4215
▁Met	-4216
▁Tie	-4217
annel	-4218
bereg	-4219
riert	-4220
verse	-4221
▁Size	-4222
▁Szen	-4223
▁base	-4224
▁rate	-4225
▁Licht	-4226
▁media	-4227
ichtung	-4228
▁Zellen	-4229
▁commun	-4230
▁stored	-4231
fügemarke	-4232
▁assigned	-4233
▁channels	-4234
▁measurement	-4235
▁Konvertierung	-4236
ds	-4237
app	-4238
tax	-4239
▁Sn	-4240
▁ak	-4241
drag	-4242
uous	-4243
▁Det	-4244
▁suc	-4245
apter	-4246
ately	-4247
▁Komm	-4248
▁Voll	-4249
▁port	-4250
▁task	-4251
ounter	-4252
▁audio	-4253
▁stack	-4254
▁Bedarf	-4255
▁rotate	-4256
▁context	-4257
▁scaling	-4258
▁behavior	-4259
▁condition	-4260
▁anzupassen	-4261
▁pe	-4262
hres	-4263
▁Fuß	-4264
asser	-4265
griff	-4266
▁List	-4267
▁noch	-4268
Bilder	-4269
gether	-4270
tigung	-4271
▁Event	-4272
▁River	-4273
lizieren	-4274
schnitts	-4275
▁Keyfram	-4276
▁letzten	-4277
▁returns	-4278
▁wechsel	-4279
▁MovieClip	-4280
▁beginning	-4281
▁resulting	-4282
lyph	-4283
▁mes	-4284
asten	-4285
rokes	-4286
weens	-4287
▁dele	-4288
▁hoch	-4289
▁ways	-4290
▁Gegen	-4291
▁steps	-4292
glichen	-4293
▁Proble	-4294
▁Screen	-4295
▁Vorder	-4296
allation	-4297
▁produce	-4298
▁Konturen	-4299
▁category	-4300
▁changing	-4301
▁Anwendungs	-4302
▁Interaktion	-4303
▁interaction	-4304
hy	-4305
oin	-4306
▁el	-4307
▁dri	-4308
▁stra	-4309
▁umge	-4310
vision	-4311
▁curve	-4312
▁neues	-4313
▁adding	-4314
▁camera	-4315
▁events	-4316
▁rather	-4317
chneiden	-4318
einander	-4319
sibility	-4320
▁gehören	-4321
▁Automati	-4322
▁distance	-4323
▁Reference	-4324
▁verschachtel	-4325
eid	-4326
▁Ju	-4327
Port	-4328
ales	-4329
iron	-4330
unde	-4331
▁Prä	-4332
▁wür	-4333
▁Blen	-4334
▁fügt	-4335
schaft	-4336
screen	-4337
▁Separ	-4338
▁every	-4339
▁wirkt	-4340
▁Übers	-4341
▁Browse	-4342
▁Dateif	-4343
▁Winkel	-4344
▁supports	-4345
▁Überprüfung	-4346
▁Einfügemarke	-4347
▁Tastaturbefehle	-4348
Sh	-4349
Sp	-4350
gä	-4351
nf	-4352
ali	-4353
lau	-4354
ony	-4355
yed	-4356
▁32	-4357
▁Du	-4358
lice	-4359
ront	-4360
▁cap	-4361
reens	-4362
▁Ober	-4363
▁aller	-4364
▁found	-4365
▁title	-4366
unächst	-4367
▁slices	-4368
▁Darüber	-4369
▁Farbton	-4370
▁Festlegen	-4371
▁navigation	-4372
▁ursprüngliche	-4373
VG	-4374
IFF	-4375
Vor	-4376
urs	-4377
▁Go	-4378
Bild	-4379
ants	-4380
iety	-4381
iler	-4382
ners	-4383
quee	-4384
rust	-4385
iting	-4386
ology	-4387
orten	-4388
▁Fort	-4389
▁Kopf	-4390
▁Mode	-4391
▁dunk	-4392
▁radi	-4393
ativen	-4394
change	-4395
ichter	-4396
▁Expor	-4397
▁Paint	-4398
▁ignor	-4399
▁Geomet	-4400
▁Univers	-4401
▁weniger	-4402
gerichtet	-4403
▁grayscale	-4404
▁percentage	-4405
of	-4406
Gra	-4407
▁Zu	-4408
bark	-4409
▁High	-4410
▁made	-4411
lected	-4412
marken	-4413
▁Techn	-4414
▁break	-4415
barkeit	-4416
▁Colors	-4417
▁regist	-4418
▁tagged	-4419
zeichner	-4420
▁besteht	-4421
▁service	-4422
▁verring	-4423
▁herunter	-4424
▁together	-4425
▁destination	-4426
▁wiedergegeben	-4427
▁du	-4428
ampl	-4429
page	-4430
▁SVG	-4431
▁net	-4432
annte	-4433
resse	-4434
ummer	-4435
▁lang	-4436
▁Modif	-4437
▁gewäh	-4438
▁klein	-4439
isieren	-4440
▁Matrix	-4441
▁kombin	-4442
▁Security	-4443
▁supported	-4444
▁certificate	-4445
AR	-4446
mes	-4447
Edit	-4448
folg	-4449
onne	-4450
vert	-4451
▁Abs	-4452
▁Fot	-4453
gänge	-4454
rigen	-4455
▁Janu	-4456
▁publ	-4457
▁schw	-4458
▁wich	-4459
tiller	-4460
▁Setup	-4461
▁Zeich	-4462
▁blank	-4463
▁siehe	-4464
ensters	-4465
▁Kamera	-4466
▁manage	-4467
▁remain	-4468
▁smooth	-4469
▁stream	-4470
▁Füllung	-4471
▁Unicode	-4472
ks	-4473
tis	-4474
▁24	-4475
lier	-4476
pond	-4477
utet	-4478
▁Weiß	-4479
▁blue	-4480
▁keep	-4481
▁surf	-4482
oordin	-4483
ritten	-4484
▁Griff	-4485
▁Laden	-4486
▁minim	-4487
atische	-4488
▁Zusammen	-4489
▁statement	-4490
▁Steuerungs	-4491
nt	-4492
nde	-4493
oid	-4494
atte	-4495
ouse	-4496
ällen	-4497
▁TIFF	-4498
▁flow	-4499
▁head	-4500
▁less	-4501
▁prim	-4502
entral	-4503
filter	-4504
▁Paste	-4505
▁sehen	-4506
öglicht	-4507
▁Nummer	-4508
▁policy	-4509
▁Volltonf	-4510
▁beginnen	-4511
▁funktion	-4512
▁wiederhol	-4513
▁Schiebereg	-4514
▁reduzieren	-4515
▁Navigations	-4516
ero	-4517
rap	-4518
ule	-4519
▁Je	-4520
pass	-4521
walt	-4522
▁cue	-4523
▁dazu	-4524
▁ligh	-4525
▁note	-4526
Modell	-4527
erning	-4528
tempel	-4529
▁Hilfe	-4530
▁Neues	-4531
▁moves	-4532
▁plane	-4533
Objekts	-4534
instanz	-4535
portion	-4536
▁tempor	-4537
▁constru	-4538
▁enabled	-4539
▁loading	-4540
zeichnung	-4541
▁Arbeiten	-4542
▁Datentyp	-4543
▁externen	-4544
▁interface	-4545
▁Kontextmenü	-4546
Ber	-4547
▁14	-4548
▁My	-4549
▁Pe	-4550
tigt	-4551
ären	-4552
▁jew	-4553
▁Char	-4554
▁Nove	-4555
▁away	-4556
ertain	-4557
ograph	-4558
staste	-4559
▁Produ	-4560
▁Texte	-4561
▁prote	-4562
▁Script	-4563
▁Austral	-4564
▁Strings	-4565
▁keyword	-4566
▁palette	-4567
▁Displays	-4568
▁November	-4569
▁Erweitert	-4570
▁shortcuts	-4571
▁Druckbogen	-4572
▁Movieclips	-4573
ai	-4574
sor	-4575
bung	-4576
ires	-4577
ival	-4578
rodu	-4579
wohl	-4580
▁Sor	-4581
▁car	-4582
▁met	-4583
▁Leer	-4584
▁Lein	-4585
▁Skin	-4586
▁much	-4587
arning	-4588
▁waren	-4589
fession	-4590
▁Dieser	-4591
▁Einige	-4592
▁length	-4593
▁Farbver	-4594
▁Unterst	-4595
▁flatten	-4596
▁Explorer	-4597
▁Zwischen	-4598
▁unabhängig	-4599
▁Befehlstaste	-4600
▁Formatierung	-4601
atu	-4602
gef	-4603
hem	-4604
ush	-4605
▁UI	-4606
▁cl	-4607
pfad	-4608
uren	-4609
▁PSD	-4610
▁Ret	-4611
▁Drop	-4612
▁Grad	-4613
tively	-4614
▁Multi	-4615
▁forms	-4616
drucken	-4617
ligkeit	-4618
▁Sounds	-4619
ierungen	-4620
▁Convert	-4621
▁becomes	-4622
▁strokes	-4623
▁keyframes	-4624
▁navigieren	-4625
fte	-4626
seg	-4627
ßen	-4628
▁cs	-4629
cher	-4630
medi	-4631
▁Ben	-4632
▁por	-4633
level	-4634
▁Fall	-4635
sitive	-4636
▁einzu	-4637
▁promp	-4638
▁statt	-4639
▁super	-4640
tischen	-4641
▁Videod	-4642
▁erhöhen	-4643
Dokumente	-4644
Reference	-4645
geordnete	-4646
wendungen	-4647
▁Ausdruck	-4648
▁increase	-4649
▁markieren	-4650
▁Veröffentlich	-4651
lik	-4652
avon	-4653
leun	-4654
oman	-4655
▁Bit	-4656
▁pas	-4657
ffekt	-4658
teilt	-4659
▁case	-4660
▁long	-4661
▁encod	-4662
▁Effect	-4663
▁larger	-4664
▁seinem	-4665
▁Default	-4666
▁Rahmens	-4667
▁gleiche	-4668
▁Leinwand	-4669
▁Segmente	-4670
▁nächsten	-4671
▁besonders	-4672
ope	-4673
tics	-4674
▁Mer	-4675
▁Mes	-4676
▁beg	-4677
füllt	-4678
ismus	-4679
riter	-4680
heiten	-4681
teilen	-4682
▁makes	-4683
Objekte	-4684
▁Fällen	-4685
▁shader	-4686
▁Content	-4687
▁Graphic	-4688
▁Anwenden	-4689
▁Beachten	-4690
▁ausführen	-4691
▁transition	-4692
kä	-4693
kur	-4694
ott	-4695
rum	-4696
iers	-4697
▁Fok	-4698
▁Prü	-4699
▁fur	-4700
arily	-4701
ctive	-4702
etzte	-4703
quenz	-4704
▁Anti	-4705
Editor	-4706
active	-4707
ichten	-4708
▁Table	-4709
▁clear	-4710
▁davon	-4711
ampling	-4712
pective	-4713
▁Beschn	-4714
▁Slices	-4715
▁nested	-4716
pecially	-4717
▁Dateity	-4718
▁Glyphen	-4719
▁choosing	-4720
▁compress	-4721
▁required	-4722
▁sequence	-4723
ungszeichen	-4724
▁especially	-4725
onfiguration	-4726
▁eingestellt	-4727
iv	-4728
sed	-4729
▁ru	-4730
uten	-4731
vely	-4732
▁Men	-4733
▁exe	-4734
▁try	-4735
▁near	-4736
layout	-4737
ording	-4738
wörter	-4739
▁glyph	-4740
browser	-4741
▁Steuere	-4742
▁einigen	-4743
schlüssel	-4744
▁Gradient	-4745
▁navigate	-4746
▁Portfolio	-4747
▁depending	-4748
▁verknüpft	-4749
▁Helligkeit	-4750
▁verknüpfen	-4751
DA	-4752
uc	-4753
aul	-4754
comp	-4755
lten	-4756
spro	-4757
uell	-4758
▁Mor	-4759
▁tip	-4760
▁Norm	-4761
▁Kreis	-4762
▁false	-4763
▁modes	-4764
▁regul	-4765
vorlage	-4766
▁canvas	-4767
▁making	-4768
▁resize	-4769
Benutzer	-4770
ungspfad	-4771
▁connect	-4772
▁Kontroll	-4773
▁Kopieren	-4774
▁segments	-4775
▁vertikal	-4776
▁übergeben	-4777
▁Verbindungs	-4778
▁auszublenden	-4779
▁Arbeitsbereich	-4780
▁Dokumentfenster	-4781
gül	-4782
abet	-4783
hrte	-4784
lers	-4785
nete	-4786
▁imp	-4787
▁Draw	-4788
▁Jede	-4789
▁Quad	-4790
▁onto	-4791
▁what	-4792
▁Aktiv	-4793
▁Ihres	-4794
▁Local	-4795
▁Press	-4796
▁cells	-4797
▁Kombin	-4798
▁listed	-4799
▁public	-4800
▁verwen	-4801
▁Querver	-4802
▁schließ	-4803
▁speziel	-4804
▁Comments	-4805
▁Platzhalter	-4806
▁Vordergrund	-4807
▁Textabschnitt	-4808
üd	-4809
ett	-4810
lid	-4811
ras	-4812
▁HD	-4813
▁Har	-4814
▁Rel	-4815
▁etw	-4816
ienst	-4817
▁rows	-4818
ordnen	-4819
tokoll	-4820
treten	-4821
▁Dreie	-4822
▁Group	-4823
▁Paket	-4824
▁Panel	-4825
▁beide	-4826
tellten	-4827
▁header	-4828
▁quickly	-4829
Dokuments	-4830
ification	-4831
▁indicate	-4832
▁Formulare	-4833
▁einzelnes	-4834
Komponenten	-4835
▁Richtlinien	-4836
ics	-4837
eins	-4838
pten	-4839
rupp	-4840
▁API	-4841
▁Kla	-4842
▁dep	-4843
▁erz	-4844
▁mid	-4845
▁Stre	-4846
▁Test	-4847
▁priv	-4848
zeitig	-4849
▁alpha	-4850
▁jeden	-4851
▁square	-4852
▁states	-4853
▁vertra	-4854
▁Profile	-4855
▁follows	-4856
▁programm	-4857
▁eingebette	-4858
einstellungen	-4859
Grid	-4860
name	-4861
ride	-4862
▁Fin	-4863
▁Sil	-4864
▁bro	-4865
▁tre	-4866
erate	-4867
nings	-4868
ziert	-4869
▁gray	-4870
▁role	-4871
ically	-4872
ziehen	-4873
▁Fokus	-4874
▁malen	-4875
▁share	-4876
▁third	-4877
wandeln	-4878
▁instru	-4879
▁Deaktiv	-4880
▁DataGrid	-4881
▁container	-4882
verzeichnis	-4883
▁verfügbaren	-4884
▁Voreinstellung	-4885
itu	-4886
imal	-4887
▁193	-4888
▁May	-4889
▁gew	-4890
▁job	-4891
ligen	-4892
▁gelö	-4893
▁step	-4894
▁Digit	-4895
▁decre	-4896
▁imple	-4897
▁impro	-4898
prüfung	-4899
▁Andere	-4900
▁Auswir	-4901
▁attack	-4902
▁coordin	-4903
▁scripts	-4904
▁zunächst	-4905
▁directory	-4906
▁ausgerichtet	-4907
kre	-4908
lug	-4909
ider	-4910
umin	-4911
▁Pat	-4912
▁Iden	-4913
▁kein	-4914
atible	-4915
ources	-4916
▁Achse	-4917
▁South	-4918
▁activ	-4919
▁besie	-4920
▁korre	-4921
▁Sprite	-4922
▁attach	-4923
▁switch	-4924
▁zweite	-4925
chnitten	-4926
methoden	-4927
position	-4928
▁gesetzt	-4929
▁komprim	-4930
▁Dateityp	-4931
definition	-4932
▁erweitern	-4933
▁functions	-4934
▁verhindern	-4935
▁administrator	-4936
20	-4937
Ch	-4938
iqu	-4939
öne	-4940
▁Ph	-4941
ason	-4942
auer	-4943
ielt	-4944
otsp	-4945
▁ill	-4946
riche	-4947
▁Viel	-4948
▁weiß	-4949
gebung	-4950
mittel	-4951
unkten	-4952
▁Siehe	-4953
▁Geräte	-4954
▁Modify	-4955
▁Stroke	-4956
▁starten	-4957
▁painting	-4958
▁software	-4959
▁Platzieren	-4960
▁gleichzeitig	-4961
▁Schieberegler	-4962
af	-4963
ogn	-4964
ians	-4965
▁Dav	-4966
▁mem	-4967
viron	-4968
weite	-4969
▁hist	-4970
▁mind	-4971
▁stor	-4972
andbox	-4973
atzmod	-4974
istung	-4975
tellte	-4976
▁Briti	-4977
▁Rolle	-4978
▁grupp	-4979
▁lesen	-4980
▁modif	-4981
▁works	-4982
▁eigene	-4983
lication	-4984
▁Schnitt	-4985
▁eigenen	-4986
▁updated	-4987
▁Vorlagen	-4988
▁Zeichnen	-4989
▁swatches	-4990
▁unterhalb	-4991
▁Ankerpunkt	-4992
▁Animationen	-4993
Einstellungen	-4994
▁transformation	-4995
ams	-4996
omä	-4997
▁Ho	-4998
▁Mc	-4999
▁te	-5000
▁Any	-5001
▁Rec	-5002
▁Uhr	-5003
▁cut	-5004
▁fit	-5005
▁uns	-5006
class	-5007
neten	-5008
▁Home	-5009
▁Jack	-5010
▁fore	-5011
horing	-5012
stchen	-5013
▁Suche	-5014
▁Track	-5015
▁deren	-5016
▁jedem	-5017
▁still	-5018
greifen	-5019
▁Beding	-5020
▁Preset	-5021
funktion	-5022
▁further	-5023
▁Diagramm	-5024
▁zuweisen	-5025
▁according	-5026
▁aufgeführt	-5027
ince	-5028
▁CSS	-5029
▁erk	-5030
range	-5031
separ	-5032
▁York	-5033
▁fünf	-5034
▁plan	-5035
▁Allow	-5036
▁Teile	-5037
▁store	-5038
▁static	-5039
▁Filters	-5040
▁Inhalten	-5041
▁PDFMaker	-5042
▁erzielen	-5043
▁wechseln	-5044
▁Distiller	-5045
▁Folgenden	-5046
▁published	-5047
▁placeholder	-5048
TF	-5049
typ	-5050
▁Sy	-5051
ille	-5052
▁Bat	-5053
▁Les	-5054
▁arm	-5055
▁hän	-5056
baren	-5057
folgt	-5058
lines	-5059
▁Aktu	-5060
▁Mehr	-5061
▁empt	-5062
gument	-5063
▁Pfads	-5064
▁falls	-5065
▁simple	-5066
▁Details	-5067
▁certain	-5068
▁vergröß	-5069
ategories	-5070
▁Vollbild	-5071
▁Übergang	-5072
▁anzugeben	-5073
▁adjustments	-5074
Job	-5075
sic	-5076
zif	-5077
▁Ha	-5078
▁id	-5079
ffen	-5080
rown	-5081
tere	-5082
▁Cor	-5083
▁Fra	-5084
▁Squ	-5085
▁abs	-5086
▁inf	-5087
onger	-5088
▁give	-5089
annten	-5090
dessen	-5091
grafik	-5092
▁Deter	-5093
▁Scale	-5094
ilities	-5095
▁Kanäle	-5096
▁copied	-5097
▁global	-5098
abetaste	-5099
▁Eintrag	-5100
▁Schritt	-5101
▁handelt	-5102
▁konfigu	-5103
▁marquee	-5104
▁nächste	-5105
▁Bildlauf	-5106
▁Laufzeit	-5107
▁generate	-5108
▁bezeichnet	-5109
▁represents	-5110
▁Eingabetaste	-5111
▁Administrator	-5112
MS	-5113
Aus	-5114
bit	-5115
elf	-5116
▁lö	-5117
erie	-5118
gesp	-5119
▁191	-5120
▁del	-5121
▁hol	-5122
▁hyp	-5123
▁leg	-5124
ettet	-5125
läufe	-5126
thers	-5127
▁date	-5128
iertes	-5129
raster	-5130
▁Brush	-5131
▁Point	-5132
▁parts	-5133
abstand	-5134
▁locate	-5135
▁occurs	-5136
▁stehen	-5137
▁Formate	-5138
▁smaller	-5139
▁zweiten	-5140
▁problems	-5141
▁timeline	-5142
▁Benutzern	-5143
▁Verfahren	-5144
▁dictionary	-5145
▁constructor	-5146
▁entsprechende	-5147
CAD	-5148
Par	-5149
fre	-5150
ief	-5151
Book	-5152
Farb	-5153
atib	-5154
errt	-5155
vant	-5156
▁Mul	-5157
where	-5158
▁Juli	-5159
▁Verz	-5160
▁caus	-5161
▁drop	-5162
▁viel	-5163
▁Black	-5164
▁Super	-5165
▁colla	-5166
▁Führen	-5167
▁Masken	-5168
▁erhöht	-5169
▁größer	-5170
▁origin	-5171
imension	-5172
kästchen	-5173
▁British	-5174
▁Palette	-5175
▁Vergröß	-5176
▁kopiert	-5177
▁samples	-5178
▁Skripten	-5179
▁Steuerung	-5180
▁Verzeichnis	-5181
SS	-5182
äd	-5183
gor	-5184
htm	-5185
ums	-5186
ebru	-5187
▁flo	-5188
▁Back	-5189
▁hell	-5190
elling	-5191
füllen	-5192
zeiger	-5193
▁built	-5194
▁große	-5195
▁inher	-5196
▁shown	-5197
Bereich	-5198
fordert	-5199
▁Motion	-5200
▁Remove	-5201
▁States	-5202
▁kleine	-5203
▁letzte	-5204
schnitte	-5205
▁History	-5206
▁Stellen	-5207
▁beginnt	-5208
▁install	-5209
▁relativ	-5210
▁various	-5211
▁National	-5212
▁contrast	-5213
▁straight	-5214
▁templates	-5215
▁ermöglicht	-5216
▁vertically	-5217
1.	-5218
äm	-5219
cen	-5220
lan	-5221
▁Am	-5222
ands	-5223
gest	-5224
iter	-5225
lish	-5226
▁Eck	-5227
▁Jun	-5228
▁Tru	-5229
▁isn	-5230
drück	-5231
heits	-5232
istri	-5233
▁Geor	-5234
▁Move	-5235
▁West	-5236
gramme	-5237
▁First	-5238
▁Willi	-5239
▁guide	-5240
▁Search	-5241
▁verein	-5242
▁Presets	-5243
▁einfache	-5244
▁Elementen	-5245
▁Zusatzmod	-5246
▁University	-5247
▁Anweisungen	-5248
ferenzhandbuch	-5249
▁transformieren	-5250
ae	-5251
ws	-5252
chs	-5253
zed	-5254
▁IK	-5255
asch	-5256
date	-5257
lose	-5258
mess	-5259
▁195	-5260
▁now	-5261
▁rol	-5262
ailed	-5263
chtig	-5264
▁dete	-5265
▁Febru	-5266
▁Pfeil	-5267
▁World	-5268
eselect	-5269
feldern	-5270
▁Medien	-5271
▁Wasser	-5272
▁assets	-5273
▁comple	-5274
▁longer	-5275
▁respon	-5276
benennen	-5277
▁rectang	-5278
▁variety	-5279
▁Übersch	-5280
▁Vorgaben	-5281
▁früheren	-5282
▁skaliert	-5283
▁untersche	-5284
▁foreground	-5285
▁vollständig	-5286
▁Modifizieren	-5287
▁Transformieren	-5288
Referenzhandbuch	-5289
01	-5290
▁!	-5291
Web	-5292
akt	-5293
bur	-5294
lop	-5295
▁TM	-5296
▁pur	-5297
Inter	-5298
usion	-5299
▁Font	-5300
▁Load	-5301
▁Zust	-5302
▁root	-5303
▁take	-5304
▁basic	-5305
quently	-5306
▁benach	-5307
▁easily	-5308
▁großen	-5309
▁hervor	-5310
▁memory	-5311
▁setzen	-5312
▁stellt	-5313
Listener	-5314
▁maximum	-5315
▁removes	-5316
▁exporting	-5317
▁Animations	-5318
▁vertikalen	-5319
▁Deaktivieren	-5320
▁abgeschlossen	-5321
ahr	-5322
any	-5323
ckt	-5324
▁Eu	-5325
Area	-5326
ilfe	-5327
mote	-5328
▁Bal	-5329
▁Hol	-5330
▁eng	-5331
▁Einz	-5332
▁Halb	-5333
▁amer	-5334
▁magn	-5335
▁vary	-5336
istent	-5337
▁Align	-5338
▁Under	-5339
▁manip	-5340
▁Aufzäh	-5341
▁Enable	-5342
▁moving	-5343
▁panels	-5344
▁reduce	-5345
▁Replace	-5346
▁Tonwert	-5347
▁project	-5348
▁External	-5349
▁editable	-5350
▁überlappen	-5351
▁positionieren	-5352
aly	-5353
,000	-5354
bine	-5355
iles	-5356
ison	-5357
oler	-5358
self	-5359
umen	-5360
▁mob	-5361
▁tro	-5362
▁vol	-5363
ebene	-5364
files	-5365
▁verl	-5366
ffekte	-5367
schrän	-5368
▁beizu	-5369
▁exact	-5370
▁exper	-5371
▁Images	-5372
▁Connect	-5373
▁Drehung	-5374
▁formati	-5375
▁network	-5376
▁umfasst	-5377
▁verbess	-5378
▁Deselect	-5379
▁amerikan	-5380
▁override	-5381
▁übereins	-5382
▁important	-5383
▁Kategorien	-5384
▁Zertifikat	-5385
▁Installation	-5386
▁beizubehalten	-5387
ME	-5388
avy	-5389
oss	-5390
Vers	-5391
zess	-5392
▁Als	-5393
▁Gre	-5394
▁Inf	-5395
▁Oct	-5396
▁mat	-5397
▁med	-5398
aging	-5399
eilen	-5400
riffe	-5401
zwerk	-5402
▁plus	-5403
asters	-5404
gängig	-5405
▁Fügen	-5406
▁North	-5407
▁round	-5408
▁sharp	-5409
▁times	-5410
bindung	-5411
▁sounds	-5412
▁tables	-5413
▁AutoCAD	-5414
▁Drücken	-5415
▁aktiven	-5416
▁gezeigt	-5417
▁present	-5418
▁segment	-5419
anwendung	-5420
vironment	-5421
▁Ausnahme	-5422
▁Bereichs	-5423
▁FreeHand	-5424
▁Regiment	-5425
▁interpre	-5426
▁relation	-5427
▁basierend	-5428
▁bookmarks	-5429
▁einbetten	-5430
▁tradition	-5431
▁processing	-5432
▁gemeinsamen	-5433
▁Instanznamen	-5434
▁unterstützen	-5435
▁Zeichenfläche	-5436
▁45	-5437
▁Ba	-5438
Cont	-5439
cept	-5440
klar	-5441
▁Lou	-5442
▁Med	-5443
▁Van	-5444
▁deg	-5445
▁pun	-5446
rennt	-5447
änger	-5448
▁bewe	-5449
▁keys	-5450
▁verm	-5451
▁Chang	-5452
▁Weich	-5453
▁attem	-5454
▁early	-5455
▁green	-5456
▁masks	-5457
weisung	-5458
▁Abbild	-5459
▁Aussch	-5460
▁Vorgang	-5461
▁devices	-5462
▁readers	-5463
Anwendung	-5464
korrektur	-5465
▁clipping	-5466
▁gelöscht	-5467
▁configure	-5468
▁tutorials	-5469
▁thumbnails	-5470
▁Druckfarben	-5471
▁performance	-5472
▁Überdrucken	-5473
▁Volltonfarben	-5474
get	-5475
ref	-5476
äng	-5477
isen	-5478
rest	-5479
▁Cli	-5480
aring	-5481
lover	-5482
▁Schn	-5483
▁diff	-5484
▁post	-5485
commen	-5486
verage	-5487
▁Count	-5488
▁Embed	-5489
▁Inclu	-5490
▁obers	-5491
▁offen	-5492
brechen	-5493
entlich	-5494
ibility	-5495
▁Guides	-5496
▁Quelle	-5497
▁filled	-5498
▁capture	-5499
▁chapter	-5500
▁handles	-5501
▁initial	-5502
▁screens	-5503
▁viewing	-5504
▁Netzwerk	-5505
▁PrintJob	-5506
▁triangle	-5507
reihenfolge	-5508
▁einrichten	-5509
▁Leerzeichen	-5510
▁Auswirkungen	-5511
▁aufgefordert	-5512
Sc	-5513
Bit	-5514
ays	-5515
eds	-5516
inc	-5517
pth	-5518
ruf	-5519
Name	-5520
geln	-5521
itze	-5522
mail	-5523
▁Fer	-5524
▁Pip	-5525
▁Sek	-5526
▁Zur	-5527
▁los	-5528
Conne	-5529
aving	-5530
▁Brig	-5531
▁June	-5532
▁Park	-5533
▁batt	-5534
▁rati	-5535
▁trig	-5536
Server	-5537
allery	-5538
▁Farbt	-5539
▁Kurve	-5540
▁Story	-5541
ication	-5542
▁Active	-5543
▁Halten	-5544
▁detail	-5545
▁marker	-5546
▁online	-5547
▁submen	-5548
▁Entwick	-5549
▁TouchUp	-5550
▁usually	-5551
fessional	-5552
▁Attribut	-5553
▁erzeugen	-5554
▁learning	-5555
▁Beschneid	-5556
▁correspon	-5557
▁verbunden	-5558
▁Wörterbuch	-5559
verarbeitung	-5560
▁Benutzerdefin	-5561
▁FileReference	-5562
▁Tastaturbefehl	-5563
RE	-5564
XML	-5565
bie	-5566
nam	-5567
rik	-5568
tot	-5569
zep	-5570
ärz	-5571
▁Co	-5572
▁tö	-5573
Comp	-5574
bare	-5575
eric	-5576
ford	-5577
sian	-5578
▁Top	-5579
▁six	-5580
Ebene	-5581
mmern	-5582
stant	-5583
▁Juni	-5584
▁Zahl	-5585
▁zulä	-5586
ablauf	-5587
chtsch	-5588
▁Excel	-5589
▁Level	-5590
▁empty	-5591
▁Center	-5592
▁Listen	-5593
▁Loader	-5594
▁bleibt	-5595
▁England	-5596
▁Anpassen	-5597
▁Anzeigen	-5598
▁Probleme	-5599
▁Schatten	-5600
▁einzigen	-5601
▁starting	-5602
▁increases	-5603
▁Beschriftung	-5604
▁entsprechend	-5605
▁DisplayObject	-5606
LE	-5607
cs	-5608
gew	-5609
pol	-5610
ünd	-5611
▁27	-5612
resh	-5613
▁Spe	-5614
▁acr	-5615
▁Hide	-5616
▁Jahr	-5617
▁bere	-5618
▁foot	-5619
adurch	-5620
hängen	-5621
▁Audio	-5622
▁Blogs	-5623
▁overs	-5624
▁refer	-5625
ability	-5626
ispiele	-5627
▁simply	-5628
▁unique	-5629
odierung	-5630
▁Bitmaps	-5631
▁Dreieck	-5632
rightness	-5633
▁Elements	-5634
▁continue	-5635
▁versehen	-5636
▁Histogram	-5637
▁highlight	-5638
▁Durchsuchen	-5639
▁alternative	-5640
▁highlighted	-5641
▁Konvertieren	-5642
▁anschließend	-5643
▁$	-5644
aut	-5645
col	-5646
ued	-5647
▁26	-5648
akan	-5649
rays	-5650
▁Ink	-5651
▁Log	-5652
dings	-5653
ident	-5654
lying	-5655
yedro	-5656
▁Frei	-5657
▁eben	-5658
▁five	-5659
dienst	-5660
ilität	-5661
ressen	-5662
rushes	-5663
▁Schla	-5664
▁avoid	-5665
▁hängt	-5666
▁leere	-5667
▁tasks	-5668
elected	-5669
▁Stärke	-5670
▁endgül	-5671
▁hinter	-5672
▁lassen	-5673
▁record	-5674
bereichs	-5675
struktor	-5676
▁Current	-5677
▁Manager	-5678
▁derzeit	-5679
▁release	-5680
▁vertrau	-5681
Portfolio	-5682
▁Debugger	-5683
▁Software	-5684
▁alternate	-5685
interaktion	-5686
▁Ereignisse	-5687
▁Publishing	-5688
▁verknüpfte	-5689
▁eingebettet	-5690
▁ausgeblendet	-5691
▁Schlüsselbild	-5692
▁standardmäßige	-5693
PD	-5694
vol	-5695
▁bo	-5696
Form	-5697
html	-5698
osed	-5699
äten	-5700
▁Maß	-5701
▁had	-5702
ellow	-5703
ights	-5704
ishes	-5705
noten	-5706
reibt	-5707
▁King	-5708
▁Once	-5709
▁Pass	-5710
▁bede	-5711
▁benö	-5712
Loader	-5713
Points	-5714
string	-5715
▁Names	-5716
▁alter	-5717
▁fills	-5718
▁würde	-5719
timedia	-5720
▁Indian	-5721
▁United	-5722
▁illust	-5723
▁immedi	-5724
▁Desktop	-5725
messungen	-5726
▁Commands	-5727
▁Erstellt	-5728
▁Klammern	-5729
▁Vielzahl	-5730
▁darunter	-5731
▁produces	-5732
▁recommen	-5733
herstellen	-5734
▁Gegensatz	-5735
▁separaten	-5736
igenschaften	-5737
▁schließlich	-5738
oreinstellungen	-5739
▁übergeordneten	-5740
II	-5741
OR	-5742
han	-5743
hlt	-5744
yal	-5745
▁28	-5746
▁Kn	-5747
ence	-5748
ites	-5749
nten	-5750
▁Army	-5751
▁Lock	-5752
▁join	-5753
gehend	-5754
zahlen	-5755
▁Radio	-5756
▁ihrem	-5757
▁Bedien	-5758
▁Regler	-5759
▁Aufzähl	-5760
▁allgeme	-5761
▁spreads	-5762
▁submenu	-5763
yedropper	-5764
▁Angleich	-5765
▁converts	-5766
▁gesendet	-5767
oordinaten	-5768
▁Untermenü	-5769
▁overprint	-5770
▁Erstellung	-5771
▁Webbrowser	-5772
▁assignment	-5773
▁ausrichten	-5774
▁throughout	-5775
▁Adjustments	-5776
MA	-5777
sa	-5778
amt	-5779
iff	-5780
like	-5781
▁HDR	-5782
▁deb	-5783
▁dro	-5784
ities	-5785
uffer	-5786
änder	-5787
▁Stra	-5788
▁frei	-5789
▁null	-5790
gorith	-5791
klasse	-5792
▁Außer	-5793
▁Stich	-5794
▁cases	-5795
▁front	-5796
cessful	-5797
▁Zahlen	-5798
▁itself	-5799
▁liegen	-5800
▁spaces	-5801
Ereignis	-5802
▁Digital	-5803
▁Drawing	-5804
▁Vollton	-5805
▁applying	-5806
▁baseline	-5807
▁bestehen	-5808
▁extension	-5809
▁Mauszeiger	-5810
▁Information	-5811
▁Bearbeitungs	-5812
▁corresponding	-5813
▁Zeichenflächen	-5814
▁übereinstimmen	-5815
FL	-5816
Sk	-5817
kon	-5818
ests	-5819
tile	-5820
uted	-5821
▁Wol	-5822
▁hil	-5823
▁sei	-5824
▁won	-5825
Books	-5826
arter	-5827
cting	-5828
issen	-5829
lickt	-5830
stift	-5831
times	-5832
▁Mich	-5833
▁Sets	-5834
▁teil	-5835
ptions	-5836
▁Länge	-5837
▁Toler	-5838
▁absol	-5839
Zeichen	-5840
anzeige	-5841
waltung	-5842
▁Preser	-5843
▁circle	-5844
▁except	-5845
▁status	-5846
qualität	-5847
▁lokalen	-5848
▁related	-5849
▁Bewegung	-5850
▁encoding	-5851
▁listener	-5852
▁negative	-5853
▁Bildschir	-5854
▁Füllfarbe	-5855
▁Keyframes	-5856
▁importing	-5857
▁vertikale	-5858
▁Buchstaben	-5859
▁Definition	-5860
▁Determines	-5861
▁Druckfarbe	-5862
▁gezeichnet	-5863
▁Komprimierung	-5864
▁Transformation	-5865
25	-5866
add	-5867
mon	-5868
sst	-5869
▁DC	-5870
Tags	-5871
ults	-5872
▁Mai	-5873
ktive	-5874
▁Audi	-5875
▁aren	-5876
▁effe	-5877
▁here	-5878
▁subs	-5879
▁weit	-5880
fassen	-5881
formen	-5882
richen	-5883
ulated	-5884
▁Clear	-5885
▁Initi	-5886
▁ruler	-5887
▁scann	-5888
ulation	-5889
▁Picker	-5890
▁erfolg	-5891
▁permis	-5892
▁upload	-5893
▁visual	-5894
▁zeigen	-5895
▁Objects	-5896
▁general	-5897
▁korrekt	-5898
▁matches	-5899
attribute	-5900
▁Außerdem	-5901
▁Graphics	-5902
bibliothek	-5903
▁Container	-5904
▁Entfernen	-5905
▁customize	-5906
▁generieren	-5907
▁Farbverlauf	-5908
▁beschränken	-5909
jor	-5910
maß	-5911
ula	-5912
.000	-5913
ades	-5914
ells	-5915
▁255	-5916
▁Okt	-5917
▁PPD	-5918
gangs	-5919
passt	-5920
▁Lets	-5921
▁Play	-5922
▁Send	-5923
▁host	-5924
Render	-5925
zeilen	-5926
▁Fotos	-5927
▁Menüs	-5928
▁Rober	-5929
▁calls	-5930
▁depth	-5931
▁south	-5932
▁write	-5933
▁zuvor	-5934
bjekten	-5935
▁Appear	-5936
▁Assist	-5937
▁Datens	-5938
▁Werten	-5939
▁domain	-5940
▁geomet	-5941
▁preced	-5942
▁series	-5943
▁zugehö	-5944
fensters	-5945
▁details	-5946
▁provider	-5947
▁Structure	-5948
▁generated	-5949
▁generiert	-5950
▁accessible	-5951
▁Application	-5952
▁Standardwert	-5953
▁Zeichenfolge	-5954
ICT	-5955
ops	-5956
osa	-5957
fall	-5958
gres	-5959
iges	-5960
rach	-5961
ried	-5962
▁Grü	-5963
▁Run	-5964
▁She	-5965
▁weg	-5966
color	-5967
izard	-5968
riere	-5969
▁Dist	-5970
▁PICT	-5971
▁bene	-5972
▁half	-5973
▁land	-5974
aktive	-5975
setzen	-5976
▁means	-5977
▁slide	-5978
▁solid	-5979
▁stark	-5980
▁water	-5981
▁Camera	-5982
▁Device	-5983
▁Dieses	-5984
▁Lineal	-5985
▁Online	-5986
▁Senden	-5987
▁Versch	-5988
▁better	-5989
▁easier	-5990
▁ensure	-5991
▁füllen	-5992
▁native	-5993
▁obwohl	-5994
elemente	-5995
▁Alphakan	-5996
▁disabled	-5997
▁getrennt	-5998
▁occurren	-5999
▁Beschleun	-6000
▁Schriften	-6001
▁alignment	-6002
▁gradients	-6003
▁Alternativ	-6004
▁Erweiterte	-6005
▁vorherigen	-6006
▁Vollbildmodus	-6007
▁functionality	-6008
▁veröffentlicht	-6009
▁standardmäßigen	-6010
▁*	-6011
kop	-6012
lte	-6013
ney	-6014
siv	-6015
▁23	-6016
▁ph	-6017
ased	-6018
most	-6019
used	-6020
▁San	-6021
▁air	-6022
▁bul	-6023
▁eff	-6024
▁exc	-6025
▁wod	-6026
dited	-6027
tikel	-6028
wirkt	-6029
▁Conf	-6030
▁User	-6031
▁anti	-6032
Stream	-6033
Symbol	-6034
icates	-6035
neiden	-6036
▁Error	-6037
▁March	-6038
▁Nicht	-6039
▁menus	-6040
▁sides	-6041
▁trace	-6042
▁Drehen	-6043
▁gerade	-6044
▁namens	-6045
▁turned	-6046
▁Creates	-6047
▁Pipette	-6048
▁Toolbox	-6049
▁located	-6050
▁wodurch	-6051
▁ähnlich	-6052
▁aufrufen	-6053
▁gefunden	-6054
▁websites	-6055
▁Aktivieren	-6056
▁Textfelder	-6057
▁Allgemeinen	-6058
▁environment	-6059
▁funktioniert	-6060
gs	-6061
ös	-6062
lon	-6063
▁90	-6064
▁Ag	-6065
ruch	-6066
usch	-6067
wind	-6068
ögen	-6069
▁esc	-6070
▁oft	-6071
▁pen	-6072
▁tot	-6073
lobal	-6074
rench	-6075
▁2007	-6076
▁Note	-6077
▁Vekt	-6078
▁Verk	-6079
▁crop	-6080
▁sent	-6081
▁slow	-6082
ologie	-6083
rierte	-6084
▁Forms	-6085
▁James	-6086
▁State	-6087
▁Timer	-6088
▁hatte	-6089
▁noise	-6090
▁tonal	-6091
editing	-6092
▁Bender	-6093
▁Weiter	-6094
▁orient	-6095
▁William	-6096
▁affects	-6097
▁darüber	-6098
▁earlier	-6099
▁wichtig	-6100
▁hierarch	-6101
Dokumenten	-6102
verhältnis	-6103
▁Skalieren	-6104
▁namespace	-6105
▁workspace	-6106
▁QuickBooks	-6107
▁converting	-6108
▁paragraphs	-6109
▁verringern	-6110
▁immediately	-6111
▁interactive	-6112
▁verknüpften	-6113
▁vollständige	-6114
▁documentation	-6115
60	-6116
Ex	-6117
ID	-6118
irt	-6119
loy	-6120
mee	-6121
yle	-6122
amil	-6123
aval	-6124
fort	-6125
önig	-6126
▁Wil	-6127
igned	-6128
inger	-6129
inten	-6130
itive	-6131
itter	-6132
lesen	-6133
maske	-6134
wards	-6135
▁3.0-	-6136
▁Grid	-6137
▁Miss	-6138
▁blei	-6139
▁poli	-6140
ablage	-6141
atoren	-6142
iziert	-6143
ourcen	-6144
raries	-6145
strain	-6146
▁Arrow	-6147
▁Chris	-6148
▁count	-6149
▁folgt	-6150
▁limit	-6151
▁wider	-6152
wandelt	-6153
▁Normal	-6154
▁hyphen	-6155
▁intens	-6156
▁starts	-6157
▁wenden	-6158
vorschau	-6159
▁Oktober	-6160
▁Vorscha	-6161
▁bleiben	-6162
▁changed	-6163
▁spacing	-6164
abilities	-6165
werkzeuge	-6166
▁bearbeit	-6167
▁zurückzu	-6168
Connection	-6169
resolution	-6170
▁operating	-6171
geschnitten	-6172
▁perspective	-6173
BC	-6174
HT	-6175
Aut	-6176
Ind	-6177
oon	-6178
rew	-6179
uff	-6180
▁22	-6181
iere	-6182
ndom	-6183
▁Mov	-6184
▁dot	-6185
▁few	-6186
▁mix	-6187
▁pra	-6188
orean	-6189
▁neut	-6190
▁rück	-6191
archie	-6192
▁Ellip	-6193
▁Frank	-6194
▁Misch	-6195
▁genau	-6196
▁zerst	-6197
▁edited	-6198
▁others	-6199
▁vielen	-6200
▁October	-6201
▁caption	-6202
▁niedrig	-6203
Interface	-6204
▁Creative	-6205
▁Japanese	-6206
▁Registri	-6207
▁identify	-6208
▁returned	-6209
▁zugreifen	-6210
▁Appearance	-6211
▁Videodatei	-6212
▁previously	-6213
▁Füllmethode	-6214
▁Querverweis	-6215
▁Sicherheits	-6216
▁aufgenommen	-6217
▁horizontalen	-6218
▁Steuerelemente	-6219
gf	-6220
zt	-6221
cks	-6222
hör	-6223
vin	-6224
wär	-6225
▁Au	-6226
▁RA	-6227
alys	-6228
atis	-6229
cial	-6230
grad	-6231
idel	-6232
ious	-6233
olon	-6234
ssig	-6235
tial	-6236
ycle	-6237
ände	-6238
▁192	-6239
▁JDF	-6240
Clock	-6241
Modus	-6242
gefla	-6243
olean	-6244
ragen	-6245
youts	-6246
▁Konf	-6247
▁sehr	-6248
▁unit	-6249
atsäch	-6250
gangen	-6251
hilfen	-6252
rennen	-6253
▁Lumin	-6254
▁needs	-6255
▁stand	-6256
gruppen	-6257
▁Commun	-6258
▁become	-6259
▁behind	-6260
▁regard	-6261
geordnet	-6262
▁Absätze	-6263
▁Boolean	-6264
toptionen	-6265
▁preserve	-6266
▁Webserver	-6267
▁hyperlink	-6268
▁operation	-6269
▁Navigation	-6270
▁geschlossen	-6271
▁orientation	-6272
▁Anschließend	-6273
▁Zeichenstift	-6274
▁importierten	-6275
▁Zwischenablage	-6276
ey	-6277
vo	-6278
wa	-6279
wh	-6280
ior	-6281
lif	-6282
letz	-6283
raum	-6284
tier	-6285
▁Mob	-6286
▁Pri	-6287
▁Tri	-6288
▁lim	-6289
gefüg	-6290
ignet	-6291
tritt	-6292
▁Hard	-6293
▁Hoch	-6294
▁Sche	-6295
▁inks	-6296
▁late	-6297
▁prec	-6298
otspot	-6299
▁Basis	-6300
▁Notiz	-6301
▁White	-6302
▁invol	-6303
▁subse	-6304
▁Assign	-6305
▁Chines	-6306
▁German	-6307
▁Kurven	-6308
▁Textes	-6309
▁Themen	-6310
▁behält	-6311
▁letter	-6312
▁pasted	-6313
basierte	-6314
minister	-6315
programm	-6316
struktur	-6317
▁aktuell	-6318
erichtung	-6319
▁Leistung	-6320
▁Geometric	-6321
▁composite	-6322
▁resources	-6323
▁überprüft	-6324
▁Abmessungen	-6325
▁erfolgreich	-6326
▁resultieren	-6327
▁Volltonfarbe	-6328
▁sicherzustellen	-6329
41	-6330
zi	-6331
off	-6332
▁60	-6333
▁Fa	-6334
dert	-6335
oses	-6336
zufü	-6337
▁180	-6338
▁Raw	-6339
▁Sät	-6340
▁sen	-6341
alter	-6342
gerät	-6343
▁Byte	-6344
▁Dece	-6345
▁exec	-6346
▁reag	-6347
Grafik	-6348
atched	-6349
ishing	-6350
licher	-6351
strich	-6352
tially	-6353
wähler	-6354
▁drawn	-6355
▁moved	-6356
▁plays	-6357
actions	-6358
cessing	-6359
füllung	-6360
geladen	-6361
visible	-6362
▁Direct	-6363
▁Doppel	-6364
▁Stream	-6365
▁levels	-6366
▁Because	-6367
▁configu	-6368
▁desktop	-6369
▁gefüllt	-6370
▁outline	-6371
▁removed	-6372
▁strings	-6373
▁surface	-6374
▁tatsäch	-6375
▁followed	-6376
▁patterns	-6377
chtigungen	-6378
▁angepasst	-6379
▁vermeiden	-6380
Anwendungen	-6381
▁Management	-6382
▁animations	-6383
▁publishing	-6384
▁Dateiformat	-6385
▁separations	-6386
▁configuration	-6387
ahn	-6388
lad	-6389
oph	-6390
äts	-6391
▁Of	-6392
illa	-6393
ital	-6394
▁Hen	-6395
▁Nor	-6396
▁bom	-6397
chmal	-6398
ippet	-6399
stufe	-6400
▁Empf	-6401
▁Full	-6402
▁Plus	-6403
▁trim	-6404
odaten	-6405
▁Light	-6406
▁Sicht	-6407
▁Skins	-6408
▁Templ	-6409
▁desto	-6410
inander	-6411
schrift	-6412
unction	-6413
▁Before	-6414
▁Einzel	-6415
▁George	-6416
▁Tiefen	-6417
▁angibt	-6418
▁ersche	-6419
▁player	-6420
vorgaben	-6421
aturation	-6422
▁printers	-6423
▁verklein	-6424
▁vordefin	-6425
▁Änderung	-6426
▁Funktions	-6427
▁deselected	-6428
▁eingegeben	-6429
▁RadioButton	-6430
▁durchführen	-6431
▁horizontale	-6432
▁interaktive	-6433
▁instructions	-6434
▁registration	-6435
▁Möglichkeiten	-6436
▁accessibility	-6437
▁Veröffentlichen	-6438
50	-6439
▁<	-6440
for	-6441
ham	-6442
the	-6443
▁2.	-6444
▁Li	-6445
▁Vi	-6446
▁ps	-6447
kung	-6448
osen	-6449
uler	-6450
vern	-6451
▁Bro	-6452
▁dpi	-6453
▁opp	-6454
▁pie	-6455
Achse	-6456
ience	-6457
iform	-6458
▁Best	-6459
▁Ohne	-6460
▁arch	-6461
▁komm	-6462
▁stre	-6463
atform	-6464
nummer	-6465
▁Datum	-6466
▁David	-6467
▁Organ	-6468
▁Suite	-6469
▁among	-6470
▁build	-6471
▁takes	-6472
Version	-6473
eration	-6474
▁Direkt	-6475
▁Master	-6476
▁deklar	-6477
▁random	-6478
▁rename	-6479
▁wendet	-6480
▁Editing	-6481
▁Kerning	-6482
▁contact	-6483
▁opening	-6484
▁overrid	-6485
▁receive	-6486
▁reflect	-6487
▁Rechtsch	-6488
▁replaces	-6489
▁auftreten	-6490
▁connected	-6491
▁described	-6492
▁BitmapData	-6493
▁Multimedia	-6494
▁sichtbaren	-6495
▁zusammenges	-6496
80	-6497
CC	-6498
na	-6499
imm	-6500
sid	-6501
▁9-	-6502
▁99	-6503
▁fa	-6504
bels	-6505
merk	-6506
usts	-6507
▁300	-6508
▁Dra	-6509
▁Jed	-6510
▁emp	-6511
▁est	-6512
▁gun	-6513
ained	-6514
hrten	-6515
licit	-6516
masch	-6517
omäne	-6518
rolle	-6519
▁July	-6520
▁Land	-6521
▁diag	-6522
▁hilf	-6523
▁kill	-6524
Sprite	-6525
stärke	-6526
▁Block	-6527
▁Klein	-6528
▁König	-6529
▁Szene	-6530
▁scene	-6531
▁sechs	-6532
▁speed	-6533
▁split	-6534
▁touch	-6535
rennung	-6536
teilung	-6537
▁Expand	-6538
▁leeren	-6539
▁lokale	-6540
▁recogn	-6541
▁thread	-6542
Renderer	-6543
▁Polygon	-6544
▁allowed	-6545
▁calling	-6546
▁reading	-6547
▁sperren	-6548
▁Einträge	-6549
▁profiles	-6550
▁subclass	-6551
▁verfügen	-6552
▁Allgemein	-6553
▁Bereichen	-6554
▁duplicate	-6555
▁ebenfalls	-6556
▁hilfreich	-6557
▁continuous	-6558
▁vergrößern	-6559
▁overlapping	-6560
▁wiederholen	-6561
99	-6562
OM	-6563
igt	-6564
▁UV	-6565
▁Us	-6566
abel	-6567
cont	-6568
fass	-6569
idet	-6570
lets	-6571
look	-6572
semb	-6573
tice	-6574
▁Sam	-6575
▁Sta	-6576
▁Wie	-6577
▁cri	-6578
▁cro	-6579
▁fps	-6580
▁ide	-6581
▁mus	-6582
Field	-6583
ennen	-6584
erein	-6585
inhal	-6586
zusch	-6587
▁Lern	-6588
▁Redu	-6589
▁Tile	-6590
▁auto	-6591
▁deut	-6592
▁film	-6593
▁mesh	-6594
▁purp	-6595
modell	-6596
ondern	-6597
platte	-6598
ringen	-6599
riting	-6600
▁Alpha	-6601
▁There	-6602
▁bleed	-6603
▁gedre	-6604
ücksich	-6605
▁Anlage	-6606
▁Marken	-6607
▁Robert	-6608
▁Syntax	-6609
▁actual	-6610
▁opened	-6611
ernfalls	-6612
▁Samples	-6613
▁bitmaps	-6614
▁counter	-6615
▁overlap	-6616
▁Kontrast	-6617
▁Workflow	-6618
▁bedeutet	-6619
▁finished	-6620
▁particip	-6621
▁addresses	-6622
▁schreiben	-6623
▁successful	-6624
▁verbessern	-6625
▁zugeordnet	-6626
▁konfigurieren	-6627
▁Formularfelder	-6628
bs	-6629
lr	-6630
uk	-6631
ara	-6632
ote	-6633
▁ai	-6634
aded	-6635
ares	-6636
eigh	-6637
farb	-6638
nern	-6639
note	-6640
rägt	-6641
▁...	-6642
▁Ske	-6643
▁UTF	-6644
antry	-6645
erfen	-6646
lösen	-6647
point	-6648
teile	-6649
▁home	-6650
▁trap	-6651
Status	-6652
enswür	-6653
sebene	-6654
▁Merge	-6655
▁Order	-6656
▁Stift	-6657
▁colon	-6658
▁merge	-6659
▁north	-6660
Caption	-6661
führung	-6662
pendent	-6663
tstelle	-6664
▁Review	-6665
▁Socket	-6666
▁listen	-6667
▁Central	-6668
▁Comment	-6669
▁combine	-6670
▁equival	-6671
▁greater	-6672
▁playing	-6673
▁sondern	-6674
erkzeugen	-6675
▁Multiple	-6676
▁argument	-6677
▁combined	-6678
▁outlines	-6679
▁positive	-6680
▁requires	-6681
windigkeit	-6682
▁sometimes	-6683
▁beschränkt	-6684
▁Überprüfer	-6685
▁Korrekturen	-6686
▁alternativen	-6687
▁Direktauswahl	-6688
4-	-6689
Ali	-6690
con	-6691
ody	-6692
opp	-6693
wan	-6694
▁BC	-6695
▁Sa	-6696
ativ	-6697
aves	-6698
came	-6699
tete	-6700
tify	-6701
▁ASC	-6702
▁Bur	-6703
▁Cap	-6704
▁too	-6705
Cycle	-6706
Index	-6707
frame	-6708
iques	-6709
orrig	-6710
▁2009	-6711
▁Band	-6712
▁Typs	-6713
▁decl	-6714
▁denn	-6715
▁Batch	-6716
▁Dynam	-6717
formati	-6718
▁distor	-6719
▁retrie	-6720
▁secure	-6721
▁yellow	-6722
Optionen	-6723
lichkeit	-6724
▁Effects	-6725
▁himself	-6726
▁reprodu	-6727
▁Ersetzen	-6728
▁Listener	-6729
▁advanced	-6730
▁beachten	-6731
▁interact	-6732
buchstaben	-6733
▁Clipboard	-6734
▁Documents	-6735
▁LiveCycle	-6736
▁Protokoll	-6737
▁Sättigung	-6738
▁Wiederhol	-6739
▁aufweisen	-6740
▁dynamisch	-6741
▁locations	-6742
▁preserves	-6743
ibliotheken	-6744
▁geöffneten	-6745
▁Prozentsatz	-6746
▁beschrieben	-6747
▁zugehörigen	-6748
▁Absatzformat	-6749
▁horizontally	-6750
▁LocalConnection	-6751
AS	-6752
xml	-6753
yan	-6754
chan	-6755
reek	-6756
rung	-6757
utes	-6758
zent	-6759
▁Ant	-6760
▁LDA	-6761
▁Lig	-6762
▁Sal	-6763
Druck	-6764
Input	-6765
achel	-6766
bögen	-6767
statt	-6768
▁März	-6769
▁None	-6770
▁Vert	-6771
▁bars	-6772
▁calc	-6773
▁disk	-6774
▁fast	-6775
▁inte	-6776
▁uner	-6777
Seiten	-6778
folios	-6779
kurven	-6780
▁Guide	-6781
▁Maxim	-6782
▁Roman	-6783
▁Width	-6784
▁began	-6785
▁cause	-6786
▁demon	-6787
▁proxy	-6788
▁ratio	-6789
▁steht	-6790
ikation	-6791
ordnung	-6792
▁Column	-6793
▁passed	-6794
▁unless	-6795
▁öffnet	-6796
▁depends	-6797
▁entwick	-6798
▁numeric	-6799
▁running	-6800
▁vorüber	-6801
▁Handbuch	-6802
▁Pinselsp	-6803
▁anywhere	-6804
▁compound	-6805
▁generates	-6806
▁jederzeit	-6807
▁reduziert	-6808
▁Ankerpunkte	-6809
▁connections	-6810
▁recommended	-6811
▁verarbeitet	-6812
▁Professional	-6813
Be	-6814
Se	-6815
Cue	-6816
ama	-6817
arc	-6818
deu	-6819
uri	-6820
▁Br	-6821
▁MP	-6822
▁Ob	-6823
HTML	-6824
aren	-6825
ceed	-6826
hler	-6827
iser	-6828
over	-6829
vari	-6830
▁1.0	-6831
▁DCS	-6832
Hilfe	-6833
State	-6834
altet	-6835
ances	-6836
asken	-6837
ohlen	-6838
titel	-6839
zieht	-6840
▁Rect	-6841
▁Ress	-6842
▁Span	-6843
▁bone	-6844
▁mean	-6845
▁rule	-6846
Domain	-6847
aptain	-6848
etzung	-6849
ington	-6850
lassic	-6851
pected	-6852
riebss	-6853
▁doing	-6854
▁grund	-6855
▁known	-6856
▁looks	-6857
▁nomin	-6858
element	-6859
▁Schlag	-6860
▁closed	-6861
▁inline	-6862
▁masked	-6863
▁nummer	-6864
▁person	-6865
▁sofort	-6866
▁typing	-6867
dokument	-6868
▁ActiveX	-6869
▁Technik	-6870
▁erzeugt	-6871
▁gelesen	-6872
▁remains	-6873
instanzen	-6874
▁Material	-6875
▁Selected	-6876
▁rechteck	-6877
▁sections	-6878
▁trapping	-6879
▁Bilddatei	-6880
▁describes	-6881
▁regulären	-6882
▁Definieren	-6883
▁Druckbögen	-6884
▁Miniaturen	-6885
▁Proportion	-6886
▁techniques	-6887
▁duplizieren	-6888
▁verwendeten	-6889
▁vorgenommen	-6890
▁heruntergeladen	-6891
▁untergeordneten	-6892
AT	-6893
ün	-6894
ael	-6895
för	-6896
iod	-6897
osp	-6898
rin	-6899
avor	-6900
häng	-6901
left	-6902
rümm	-6903
tely	-6904
ural	-6905
▁Enc	-6906
▁Geb	-6907
▁Gel	-6908
▁Jer	-6909
▁XFL	-6910
einfl	-6911
insok	-6912
nungs	-6913
weist	-6914
▁Absp	-6915
▁Corn	-6916
▁Hold	-6917
▁Supp	-6918
▁Wahl	-6919
▁verz	-6920
finale	-6921
rusted	-6922
uation	-6923
werten	-6924
winkel	-6925
▁Notes	-6926
▁Paths	-6927
▁given	-6928
▁gradu	-6929
▁ihnen	-6930
▁since	-6931
bildern	-6932
defined	-6933
▁Entwür	-6934
▁Pixeln	-6935
▁Scroll	-6936
▁Simple	-6937
▁Single	-6938
▁Sonder	-6939
▁eindeu	-6940
▁extend	-6941
▁region	-6942
▁teilen	-6943
rechteck	-6944
▁Artikel	-6945
▁beeinfl	-6946
Anweisung	-6947
atibility	-6948
geflachte	-6949
▁animated	-6950
▁außerdem	-6951
▁displace	-6952
▁progress	-6953
▁contained	-6954
▁sortieren	-6955
▁verteilen	-6956
▁correspond	-6957
▁underlying	-6958
▁coordinates	-6959
▁permissions	-6960
▁programming	-6961
▁rectangular	-6962
▁Vektorgrafik	-6963
▁exportierten	-6964
▁Überfüllungs	-6965
▁Konfiguration	-6966
▁Registrierung	-6967
▁verschachtelte	-6968
OC	-6969
Man	-6970
Tag	-6971
amb	-6972
cil	-6973
unt	-6974
ura	-6975
▁Mi	-6976
förm	-6977
ised	-6978
stil	-6979
▁256	-6980
▁Pol	-6981
▁bil	-6982
▁bin	-6983
▁ihm	-6984
▁prü	-6985
▁sem	-6986
ining	-6987
ittle	-6988
ondon	-6989
uldig	-6990
▁2.0-	-6991
▁Item	-6992
▁Pack	-6993
▁Quiz	-6994
▁easy	-6995
▁else	-6996
▁etwa	-6997
▁kurz	-6998
▁soon	-6999
finder	-7000
ulates	-7001
velope	-7002
▁never	-7003
▁sizes	-7004
▁units	-7005
bezogen	-7006
ulieren	-7007
vention	-7008
▁Codebe	-7009
▁Flucht	-7010
▁French	-7011
▁Januar	-7012
▁London	-7013
▁Return	-7014
▁became	-7015
▁clicks	-7016
▁nehmen	-7017
▁sollte	-7018
▁verank	-7019
▁Changes	-7020
▁flashcs	-7021
programme	-7022
▁defeated	-7023
▁describe	-7024
▁determin	-7025
▁versucht	-7026
▁zulässig	-7027
▁Duplicate	-7028
▁TextField	-7029
▁ignoriert	-7030
▁rendering	-7031
▁speichert	-7032
▁grundlegen	-7033
▁combination	-7034
▁kombinieren	-7035
▁umgewandelt	-7036
▁Textwerkzeug	-7037
▁Wasserzeichen	-7038
▁vorübergehend	-7039
02	-7040
go	-7041
uen	-7042
uer	-7043
▁ES	-7044
asso	-7045
elte	-7046
komm	-7047
sent	-7048
tian	-7049
▁Bul	-7050
▁Wel	-7051
▁ang	-7052
iness	-7053
rache	-7054
rated	-7055
▁conc	-7056
▁glow	-7057
▁live	-7058
▁loop	-7059
▁mitt	-7060
▁very	-7061
▁zero	-7062
estens	-7063
insoku	-7064
quelle	-7065
reated	-7066
▁Armee	-7067
▁Grupp	-7068
▁Louis	-7069
▁Milli	-7070
▁Union	-7071
▁debug	-7072
Display	-7073
meldung	-7074
rierten	-7075
vorgabe	-7076
▁Jahren	-7077
▁Rotate	-7078
▁Sample	-7079
▁Verein	-7080
▁curves	-7081
▁einmal	-7082
▁merged	-7083
▁mobile	-7084
▁prüfen	-7085
atischen	-7086
vorlagen	-7087
▁January	-7088
▁Project	-7089
▁Starten	-7090
▁externe	-7091
▁kleiner	-7092
▁manuell	-7093
▁reduces	-7094
▁trigger	-7095
▁Bookmark	-7096
▁December	-7097
▁Division	-7098
▁aufheben	-7099
▁designed	-7100
▁implemen	-7101
▁Textdatei	-7102
▁preflight	-7103
▁Optimieren	-7104
▁angegebene	-7105
▁einstellen	-7106
▁Automatisch	-7107
▁Bedienfelder	-7108
▁Sonderzeichen	-7109
▁vertrauenswür	-7110
lam	-7111
zip	-7112
▁Af	-7113
▁IP	-7114
▁Nä	-7115
Down	-7116
Tran	-7117
ably	-7118
case	-7119
tens	-7120
wood	-7121
▁Alb	-7122
▁Cut	-7123
▁IME	-7124
▁Rem	-7125
▁Row	-7126
▁ord	-7127
acent	-7128
boBox	-7129
ening	-7130
ftone	-7131
▁2003	-7132
▁Arch	-7133
▁Batt	-7134
▁Mont	-7135
▁Pfei	-7136
▁Zoll	-7137
▁aufz	-7138
▁loss	-7139
▁scan	-7140
profil	-7141
▁ASCII	-7142
▁Acces	-7143
▁akzep	-7144
▁apart	-7145
▁briti	-7146
▁drive	-7147
▁geeig	-7148
▁icons	-7149
▁stamp	-7150
Adresse	-7151
eiligen	-7152
unehmen	-7153
▁Batail	-7154
▁darker	-7155
▁umgeke	-7156
▁Numeric	-7157
▁bezieht	-7158
▁gefolgt	-7159
▁improve	-7160
▁lighter	-7161
reference	-7162
▁Aktualis	-7163
▁ComboBox	-7164
▁Compiler	-7165
▁TextArea	-7166
▁manually	-7167
▁response	-7168
▁surround	-7169
▁beeinflus	-7170
▁benachbar	-7171
▁derselben	-7172
▁numbering	-7173
▁Markierung	-7174
▁Seitenzahl	-7175
▁categories	-7176
▁operations	-7177
▁preference	-7178
bearbeitungs	-7179
▁geschrieben	-7180
▁automatische	-7181
▁installieren	-7182
▁Arbeitsablauf	-7183
ahm	-7184
bro	-7185
cas	-7186
sts	-7187
eils	-7188
plet	-7189
▁Den	-7190
▁Kar	-7191
▁Leg	-7192
▁RSS	-7193
▁Zie	-7194
Daten	-7195
abled	-7196
field	-7197
mbers	-7198
orien	-7199
press	-7200
▁Blau	-7201
▁Deze	-7202
▁Kons	-7203
▁Left	-7204
▁byte	-7205
▁free	-7206
▁ging	-7207
▁sche	-7208
▁unbe	-7209
option	-7210
ändern	-7211
örtern	-7212
ützung	-7213
▁Aller	-7214
▁Autor	-7215
▁Thema	-7216
▁batch	-7217
Browser	-7218
auschen	-7219
▁advant	-7220
▁besser	-7221
▁gelten	-7222
▁graphs	-7223
▁multip	-7224
▁zuerst	-7225
segmente	-7226
▁Berechn	-7227
▁Skripts	-7228
▁Stempel	-7229
▁Tabulat	-7230
▁selects	-7231
▁shadows	-7232
Authoring	-7233
▁Dezember	-7234
▁Rollover	-7235
▁constant	-7236
▁internal	-7237
▁platform	-7238
▁correctly	-7239
▁brightness	-7240
▁contribute	-7241
▁gemeinsame	-7242
▁mindestens	-7243
▁Formularfeld	-7244
▁Mustervorlage	-7245
▁Zeichenformat	-7246
▁magnification	-7247
▁überschrieben	-7248
▁Beschriftungen	-7249
.2	-7250
▁^	-7251
RIP	-7252
ife	-7253
raf	-7254
ssi	-7255
▁Wo	-7256
▁ep	-7257
▁ir	-7258
Mode	-7259
luss	-7260
▁184	-7261
▁186	-7262
▁187	-7263
▁Dan	-7264
▁FDF	-7265
▁Pal	-7266
▁Tor	-7267
▁kod	-7268
Paket	-7269
adron	-7270
backs	-7271
elled	-7272
eting	-7273
iehlt	-7274
lager	-7275
lands	-7276
lease	-7277
ornad	-7278
utter	-7279
▁2012	-7280
▁Fügt	-7281
▁Gren	-7282
▁Phil	-7283
▁gilt	-7284
▁snap	-7285
▁zent	-7286
arches	-7287
laufen	-7288
uellen	-7289
▁About	-7290
▁Entry	-7291
▁Jedes	-7292
▁Royal	-7293
▁Short	-7294
▁Zield	-7295
▁milli	-7296
▁overw	-7297
▁übers	-7298
palette	-7299
rowsers	-7300
vorgang	-7301
▁Rights	-7302
▁Rollen	-7303
▁copies	-7304
▁curved	-7305
▁dessen	-7306
▁matrix	-7307
▁proced	-7308
wendungs	-7309
▁Brigade	-7310
▁Konstan	-7311
▁Reading	-7312
▁Verzerr	-7313
▁missing	-7314
▁toolbox	-7315
Parameter	-7316
zugreifen	-7317
▁adjacent	-7318
▁gesperrt	-7319
▁keywords	-7320
▁programs	-7321
▁tracking	-7322
atibilität	-7323
▁Beispiele	-7324
▁Benutzers	-7325
▁PageMaker	-7326
▁artboards	-7327
▁invisible	-7328
▁Allerdings	-7329
▁Farbgruppe	-7330
▁Festplatte	-7331
▁Interaktiv	-7332
▁Verhältnis	-7333
▁management	-7334
▁verhindert	-7335
▁Separationen	-7336
▁Sichtbarkeit	-7337
▁einschließen	-7338
▁Zeilenabstand	-7339
▁Textabschnitts	-7340
AB	-7341
SH	-7342
va	-7343
cyc	-7344
leg	-7345
lus	-7346
tag	-7347
gelt	-7348
rael	-7349
▁Air	-7350
▁OPI	-7351
▁Wes	-7352
▁dev	-7353
▁fam	-7354
▁fer	-7355
▁nar	-7356
▁put	-7357
▁zog	-7358
downs	-7359
wärts	-7360
zweiß	-7361
▁Cons	-7362
▁band	-7363
▁flex	-7364
▁scen	-7365
▁umzu	-7366
▁wrap	-7367
astern	-7368
muster	-7369
rative	-7370
▁Label	-7371
▁Spiel	-7372
▁fixed	-7373
▁knock	-7374
▁liegt	-7375
▁reuse	-7376
▁total	-7377
gesetzt	-7378
ortaste	-7379
▁begins	-7380
▁wirken	-7381
bereiche	-7382
orkommen	-7383
stellung	-7384
▁Ebenens	-7385
▁Include	-7386
▁Quadrat	-7387
▁frequen	-7388
▁innings	-7389
▁jeweils	-7390
▁Optimize	-7391
▁Progress	-7392
▁prompted	-7393
▁Überprüf	-7394
▁geladenen	-7395
riebssystem	-7396
▁Ausrichten	-7397
▁Navigieren	-7398
▁interaktiv	-7399
▁Erweiterung	-7400
▁gleichmäßig	-7401
▁Überfüllung	-7402
▁Verarbeitung	-7403
▁Alternatively	-7404
▁Dokumentation	-7405
▁Berechtigungen	-7406
▁Tabulatortaste	-7407
▁erforderlichen	-7408
11	-7409
▁’	-7410
Ste	-7411
sey	-7412
öst	-7413
Page	-7414
akro	-7415
alog	-7416
ided	-7417
rope	-7418
ämpf	-7419
▁Bow	-7420
▁Fit	-7421
▁Ter	-7422
allen	-7423
inges	-7424
▁2000	-7425
▁2006	-7426
▁2010	-7427
▁Alex	-7428
▁Cell	-7429
▁Mart	-7430
▁Nähe	-7431
▁Part	-7432
▁Rest	-7433
▁alth	-7434
▁good	-7435
▁tabs	-7436
ierter	-7437
ondere	-7438
▁Bones	-7439
▁Henry	-7440
▁Patri	-7441
▁Power	-7442
▁Schle	-7443
▁artic	-7444
▁darin	-7445
▁überw	-7446
Stepper	-7447
▁Zurück	-7448
▁eignet	-7449
▁locked	-7450
▁models	-7451
▁period	-7452
▁realis	-7453
▁repeat	-7454
▁report	-7455
▁syntax	-7456
▁Michael	-7457
▁Outlook	-7458
▁Verweis	-7459
▁attempt	-7460
▁confirm	-7461
▁deleted	-7462
▁distrib	-7463
▁gallery	-7464
▁langref	-7465
▁portion	-7466
▁updates	-7467
besondere	-7468
entlichen	-7469
▁although	-7470
▁manchmal	-7471
▁markiert	-7472
funktionen	-7473
oberfläche	-7474
▁Textebene	-7475
▁constrain	-7476
▁intensity	-7477
▁preserved	-7478
▁versuchen	-7479
▁highlights	-7480
▁regardless	-7481
▁Bezeichnung	-7482
▁characteris	-7483
▁temporarily	-7484
▁zuzugreifen	-7485
▁Musterseiten	-7486
▁illustration	-7487
▁relationship	-7488
▁Beschleunigung	-7489
▁NumericStepper	-7490
FF	-7491
jo	-7492
yl	-7493
zy	-7494
▁ä	-7495
inu	-7496
oke	-7497
▁3.	-7498
▁7.	-7499
▁ft	-7500
heet	-7501
ranz	-7502
rong	-7503
teid	-7504
yond	-7505
▁Don	-7506
▁Süd	-7507
▁Yes	-7508
▁bek	-7509
▁ggf	-7510
▁zuf	-7511
Array	-7512
phone	-7513
tocol	-7514
▁Crop	-7515
▁blur	-7516
▁pair	-7517
▁quiz	-7518
▁tree	-7519
member	-7520
schein	-7521
▁Glyph	-7522
▁edits	-7523
▁least	-7524
▁passt	-7525
Website	-7526
rahmens	-7527
▁aspect	-7528
▁glyphs	-7529
▁labels	-7530
▁scaled	-7531
idelines	-7532
▁Dadurch	-7533
▁Lichter	-7534
▁Working	-7535
▁gedreht	-7536
▁managed	-7537
▁monitor	-7538
▁quarter	-7539
▁respond	-7540
basierten	-7541
▁Ausgangs	-7542
▁Bearbeit	-7543
▁Entwürfe	-7544
▁Fußnoten	-7545
▁Learning	-7546
▁Template	-7547
▁compiler	-7548
▁komplexe	-7549
▁TextInput	-7550
▁freigeben	-7551
▁liegenden	-7552
▁einzufügen	-7553
▁rückgängig	-7554
▁umbenennen	-7555
▁übernehmen	-7556
▁Fluchtpunkt	-7557
▁Kombination	-7558
▁Importoptionen	-7559
yr	-7560
URL	-7561
hip	-7562
ups	-7563
zte	-7564
▁00	-7565
▁AS	-7566
Wert	-7567
inde	-7568
orts	-7569
ählt	-7570
▁Jah	-7571
▁SWC	-7572
▁Sel	-7573
▁bed	-7574
▁far	-7575
▁iss	-7576
ahnen	-7577
kanal	-7578
pezif	-7579
ports	-7580
▁2008	-7581
▁East	-7582
▁Nord	-7583
▁face	-7584
▁laun	-7585
▁pain	-7586
Inhalt	-7587
String	-7588
kennen	-7589
schirm	-7590
▁Cross	-7591
▁Field	-7592
▁Neuer	-7593
▁Prote	-7594
▁Range	-7595
▁Typen	-7596
▁Valid	-7597
▁survi	-7598
klassen	-7599
▁Certif	-7600
▁korrig	-7601
▁passen	-7602
▁schlug	-7603
▁though	-7604
izierung	-7605
▁Channel	-7606
▁Charles	-7607
▁Printer	-7608
▁beenden	-7609
▁finally	-7610
▁inherit	-7611
▁interse	-7612
▁kompati	-7613
▁overall	-7614
▁warning	-7615
▁Shortcut	-7616
▁barriere	-7617
▁numbered	-7618
▁operator	-7619
▁prevents	-7620
▁Abbildung	-7621
▁Anweisung	-7622
▁Dateiform	-7623
▁verweisen	-7624
▁Abschnitts	-7625
▁Eyedropper	-7626
▁collection	-7627
▁compressed	-7628
▁dynamische	-7629
▁selections	-7630
▁visibility	-7631
▁Transparency	-7632
▁übergeordnete	-7633
▁zurückzukehren	-7634
▁Lerninteraktion	-7635
acy	-7636
ada	-7637
ino	-7638
seh	-7639
▁4.	-7640
▁AV	-7641
▁mc	-7642
immt	-7643
itet	-7644
kont	-7645
ocal	-7646
oper	-7647
werk	-7648
ärfe	-7649
▁Ach	-7650
▁Lar	-7651
▁nie	-7652
▁wes	-7653
hoben	-7654
itzen	-7655
letzt	-7656
lined	-7657
platz	-7658
rüche	-7659
shire	-7660
uchte	-7661
uelle	-7662
▁Ents	-7663
▁LDAP	-7664
▁Meld	-7665
▁Meta	-7666
▁Mill	-7667
▁Null	-7668
▁Spot	-7669
▁char	-7670
▁runs	-7671
▁term	-7672
▁tile	-7673
▁west	-7674
▁Ecken	-7675
▁chose	-7676
▁elect	-7677
▁leave	-7678
▁milit	-7679
▁reset	-7680
▁sucht	-7681
Schrift	-7682
lopedia	-7683
sequenz	-7684
▁Nehmen	-7685
▁Radius	-7686
▁browse	-7687
▁causes	-7688
▁checks	-7689
▁höhere	-7690
▁places	-7691
culation	-7692
maschine	-7693
▁Fortsch	-7694
▁clicked	-7695
▁leading	-7696
▁explicit	-7697
▁lighting	-7698
▁organize	-7699
Verbindung	-7700
▁Kontrolle	-7701
▁Rectangle	-7702
▁Schließen	-7703
▁statische	-7704
▁Conversion	-7705
▁Textobjekt	-7706
▁importierte	-7707
▁Seitenlayout	-7708
▁displacement	-7709
▁insbesondere	-7710
▁eingebetteten	-7711
▁unterscheiden	-7712
▁GeometricSprite	-7713
ady	-7714
cer	-7715
dle	-7716
ica	-7717
ped	-7718
sei	-7719
sse	-7720
tiz	-7721
▁Ku	-7722
▁gl	-7723
▁ha	-7724
▁tw	-7725
agen	-7726
alle	-7727
bert	-7728
gene	-7729
▁183	-7730
▁Kle	-7731
▁Sen	-7732
▁prä	-7733
iforn	-7734
inals	-7735
laces	-7736
ronic	-7737
▁Area	-7738
▁Bele	-7739
▁Blur	-7740
▁Sort	-7741
▁Wash	-7742
▁Welt	-7743
▁cent	-7744
▁jump	-7745
▁ruft	-7746
▁warn	-7747
ebenen	-7748
igures	-7749
inhalt	-7750
isiert	-7751
rength	-7752
roller	-7753
ätigen	-7754
▁Angle	-7755
▁Ausge	-7756
▁japan	-7757
▁unver	-7758
Drucker	-7759
▁Access	-7760
▁Anpass	-7761
▁Fertig	-7762
▁Height	-7763
▁Korean	-7764
▁behand	-7765
▁beyond	-7766
▁mathem	-7767
▁prefer	-7768
Complete	-7769
aliasing	-7770
inträgen	-7771
speicher	-7772
tellungs	-7773
▁Devices	-7774
▁Identit	-7775
▁Musters	-7776
▁Notizen	-7777
▁Support	-7778
▁erreich	-7779
▁forward	-7780
▁grouped	-7781
▁größere	-7782
▁kleinen	-7783
▁könnten	-7784
▁regions	-7785
▁sandbox	-7786
Container	-7787
▁examples	-7788
▁modified	-7789
▁signific	-7790
▁Namespace	-7791
▁Streaming	-7792
▁empfiehlt	-7793
▁erweitert	-7794
▁libraries	-7795
▁Blogserver	-7796
▁Pathfinder	-7797
▁attachment	-7798
▁endgültige	-7799
▁guidelines	-7800
▁herstellen	-7801
▁proportion	-7802
▁statements	-7803
▁Koordinaten	-7804
▁zusätzlichen	-7805
voreinstellungen	-7806
ka	-7807
lot	-7808
räg	-7809
Fram	-7810
ennt	-7811
ixer	-7812
omer	-7813
rand	-7814
rant	-7815
rypt	-7816
ully	-7817
Über	-7818
▁Esc	-7819
▁Kat	-7820
▁Umf	-7821
▁bow	-7822
▁gab	-7823
▁rev	-7824
anten	-7825
ision	-7826
scher	-7827
▁City	-7828
▁Eins	-7829
▁Grün	-7830
▁Star	-7831
specif	-7832
▁Close	-7833
▁Codes	-7834
▁Colle	-7835
▁Corre	-7836
▁Users	-7837
▁exist	-7838
▁major	-7839
▁radio	-7840
▁sheet	-7841
auftrag	-7842
ctively	-7843
grammen	-7844
▁School	-7845
▁Tweens	-7846
▁accept	-7847
▁accomp	-7848
▁client	-7849
▁radius	-7850
▁sofern	-7851
▁ähnelt	-7852
dienstle	-7853
ergebnis	-7854
miniatur	-7855
objekten	-7856
▁Bestimm	-7857
▁Hotspot	-7858
▁Punkten	-7859
▁Vektorm	-7860
▁gewählt	-7861
▁globale	-7862
Transform	-7863
▁Ausgewäh	-7864
▁anchored	-7865
▁gespeich	-7866
▁provided	-7867
▁replaced	-7868
▁umkehren	-7869
▁überlapp	-7870
cyclopedia	-7871
▁Verwendet	-7872
▁reviewers	-7873
▁Einblenden	-7874
▁Grundlinie	-7875
▁conditions	-7876
▁Grundlinien	-7877
▁durchsuchen	-7878
▁dynamically	-7879
▁Ausschneiden	-7880
▁representing	-7881
▁Betriebssystem	-7882
,0	-7883
IT	-7884
ja	-7885
oot	-7886
uck	-7887
ude	-7888
ädt	-7889
▁21	-7890
▁SC	-7891
File	-7892
Fill	-7893
abei	-7894
acts	-7895
aged	-7896
bent	-7897
enta	-7898
kopf	-7899
ster	-7900
▁216	-7901
▁Dem	-7902
▁Ref	-7903
▁Tro	-7904
▁Wal	-7905
▁Wir	-7906
▁erw	-7907
▁gül	-7908
▁sob	-7909
Seite	-7910
Werte	-7911
ircle	-7912
räume	-7913
▁Also	-7914
▁Flor	-7915
▁Größ	-7916
▁Paul	-7917
▁Repe	-7918
▁Snap	-7919
▁rund	-7920
▁trat	-7921
ennung	-7922
lätten	-7923
stellt	-7924
teller	-7925
▁Bezug	-7926
▁Gener	-7927
▁Jeder	-7928
▁Lasso	-7929
▁ersch	-7930
▁estab	-7931
▁power	-7932
▁views	-7933
Handler	-7934
ennamen	-7935
segment	-7936
zeigers	-7937
▁Anführ	-7938
▁Glyphe	-7939
▁Intens	-7940
▁Source	-7941
▁Tasten	-7942
▁Wendet	-7943
▁enclos	-7944
▁former	-7945
▁played	-7946
▁saving	-7947
▁solche	-7948
▁verurs	-7949
▁Chinese	-7950
▁English	-7951
▁Kontakt	-7952
▁Silbent	-7953
▁enables	-7954
▁introdu	-7955
▁logical	-7956
▁markers	-7957
▁private	-7958
▁problem	-7959
▁servers	-7960
auflösung	-7961
▁Download	-7962
▁Preserve	-7963
▁Referenz	-7964
▁Zustände	-7965
▁anhängen	-7966
▁decrease	-7967
Captioning	-7968
▁Signature	-7969
▁empfohlen	-7970
▁encounter	-7971
▁erfordert	-7972
▁spezielle	-7973
▁boundaries	-7974
▁distribute	-7975
▁Bildschirme	-7976
▁dynamischen	-7977
▁expressions	-7978
▁significant	-7979
▁successfully	-7980
▁Absatzformate	-7981
▁Bewegungspfad	-7982
▁Layoutansicht	-7983
▁normalerweise	-7984
-1	-7985
Le	-7986
Un	-7987
ek	-7988
öl	-7989
REP	-7990
RGB	-7991
eta	-7992
gab	-7993
ira	-7994
ury	-7995
▁Av	-7996
▁mp	-7997
Tool	-7998
akte	-7999
bing	-8000
deck	-8001
krie	-8002
▁cas	-8003
▁fla	-8004
▁kre	-8005
▁tou	-8006
Child	-8007
Style	-8008
anden	-8009
osten	-8010
ously	-8011
▁Blue	-8012
▁Hall	-8013
▁Samm	-8014
▁Scan	-8015
▁Uses	-8016
▁Vier	-8017
▁Zwei	-8018
▁ermö	-8019
▁ques	-8020
▁seit	-8021
Screen	-8022
griffe	-8023
isches	-8024
lendet	-8025
selves	-8026
uchten	-8027
▁Integ	-8028
▁Keine	-8029
▁Stamm	-8030
▁fully	-8031
▁sites	-8032
▁tiles	-8033
▁trust	-8034
▁wegen	-8035
▁whose	-8036
isierte	-8037
▁Kachel	-8038
▁Rechte	-8039
▁führte	-8040
▁having	-8041
▁selben	-8042
Aliasing	-8043
▁Applies	-8044
▁Innings	-8045
▁Measure	-8046
▁Ordners	-8047
▁Truppen	-8048
▁XMLList	-8049
▁alphabe	-8050
▁höheren	-8051
▁progres	-8052
▁trennen	-8053
▁Keyframe	-8054
▁absolute	-8055
▁consists	-8056
▁floating	-8057
▁zulassen	-8058
▁Anschnitt	-8059
▁Copyright	-8060
▁Variables	-8061
▁behaviors	-8062
▁schneller	-8063
▁typically	-8064
▁Alphakanal	-8065
▁Gradations	-8066
▁Prozentwert	-8067
▁aufeinander	-8068
▁Encyclopedia	-8069
▁Rechtschreib	-8070
▁Zusatzmodule	-8071
▁overprinting	-8072
▁Druckdienstle	-8073
▁zurückgegeben	-8074
▁Überschriften	-8075
▁Symbolinstanzen	-8076
85	-8077
dy	-8078
ena	-8079
pse	-8080
ulf	-8081
▁72	-8082
▁Si	-8083
▁pa	-8084
Call	-8085
aque	-8086
bles	-8087
cend	-8088
cond	-8089
dern	-8090
efin	-8091
erer	-8092
gins	-8093
plex	-8094
ußen	-8095
▁Cas	-8096
▁Kir	-8097
▁Mat	-8098
▁One	-8099
▁RAF	-8100
▁bal	-8101
▁ehe	-8102
▁gem	-8103
▁nun	-8104
Sound	-8105
alone	-8106
liant	-8107
limin	-8108
orpor	-8109
raten	-8110
▁Edge	-8111
▁flag	-8112
▁ganz	-8113
▁gena	-8114
▁kind	-8115
▁lost	-8116
apshot	-8117
breite	-8118
drücke	-8119
indest	-8120
kanten	-8121
regler	-8122
▁Reset	-8123
▁explo	-8124
▁offic	-8125
▁Common	-8126
▁Curves	-8127
▁Instan	-8128
▁Kommun	-8129
▁Levels	-8130
▁Maßein	-8131
▁Steuer	-8132
▁Update	-8133
▁bieten	-8134
▁erhält	-8135
▁keinen	-8136
▁retain	-8137
▁weight	-8138
▁wizard	-8139
▁Jackson	-8140
▁Scripts	-8141
▁Sequenz	-8142
▁anderer	-8143
▁checked	-8144
▁overlay	-8145
▁simplif	-8146
▁unsepar	-8147
iedergabe	-8148
▁Anforder	-8149
▁Symbolen	-8150
▁administ	-8151
▁armature	-8152
▁commonly	-8153
▁erkennen	-8154
▁Community	-8155
▁Grundlage	-8156
▁adjusting	-8157
▁watermark	-8158
▁Farbwähler	-8159
▁compatible	-8160
▁equivalent	-8161
▁erstellten	-8162
▁manipulate	-8163
▁Bedingungen	-8164
▁beschreiben	-8165
▁stattdessen	-8166
▁traditional	-8167
▁verkleinern	-8168
▁Verbindungen	-8169
▁restrictions	-8170
▁Skriptfenster	-8171
▁Werkzeugleiste	-8172
▁Geschwindigkeit	-8173
▁Strukturansicht	-8174
GL	-8175
TC	-8176
Kon	-8177
ida	-8178
mel	-8179
nte	-8180
rad	-8181
ugh	-8182
▁-1	-8183
▁Gl	-8184
aser	-8185
chel	-8186
come	-8187
ined	-8188
rees	-8189
voll	-8190
▁fac	-8191
▁fra	-8192
▁gel	-8193
▁ren	-8194
anter	-8195
chnet	-8196
elten	-8197
etter	-8198
ingen	-8199
teten	-8200
▁GREP	-8201
▁More	-8202
▁höch	-8203
▁know	-8204
▁kont	-8205
▁past	-8206
▁zahl	-8207
aturen	-8208
binden	-8209
nahmen	-8210
▁Bevor	-8211
▁Malen	-8212
▁Match	-8213
▁Textb	-8214
▁bevel	-8215
▁broad	-8216
▁daher	-8217
▁equal	-8218
▁etwas	-8219
▁skins	-8220
▁wheel	-8221
Fenster	-8222
ffected	-8223
▁Associ	-8224
▁Global	-8225
▁Remote	-8226
▁extrah	-8227
▁leicht	-8228
▁proper	-8229
▁sobald	-8230
beziehen	-8231
portions	-8232
▁Februar	-8233
▁Prüfung	-8234
▁adjusts	-8235
▁angezei	-8236
▁bewegen	-8237
▁brushes	-8238
▁einzige	-8239
▁extends	-8240
▁minimum	-8241
▁runtime	-8242
▁windows	-8243
▁Endpunkt	-8244
▁February	-8245
▁Verläufe	-8246
▁besiegte	-8247
▁resizing	-8248
▁Bookmarks	-8249
▁Dateiname	-8250
▁Framerate	-8251
▁generally	-8252
▁otherwise	-8253
▁performed	-8254
▁technique	-8255
▁verfolgen	-8256
▁wiederher	-8257
▁Ausblenden	-8258
▁Ressourcen	-8259
▁displaying	-8260
▁indicating	-8261
▁jeweiligen	-8262
▁themselves	-8263
onvertierung	-8264
▁Konstruktor	-8265
▁Rasterweite	-8266
▁Tabulatoren	-8267
▁Zuschneiden	-8268
▁replacement	-8269
Werkzeugleiste	-8270
▁International	-8271
▁Prozessfarben	-8272
▁resultierende	-8273
▁zusammenfügen	-8274
▁ausgeblendeten	-8275
▁Werkzeugleisten	-8276
▁characteristics	-8277
WF	-8278
hi	-8279
adt	-8280
ala	-8281
dat	-8282
heb	-8283
ico	-8284
urm	-8285
▁Kr	-8286
▁Ta	-8287
▁äl	-8288
Info	-8289
Size	-8290
ante	-8291
ball	-8292
hest	-8293
modi	-8294
ongs	-8295
rang	-8296
ston	-8297
wall	-8298
▁4.0	-8299
▁Beh	-8300
▁Che	-8301
▁Cro	-8302
▁IDs	-8303
▁Int	-8304
▁Kal	-8305
▁LMS	-8306
▁Map	-8307
▁Mis	-8308
▁RIP	-8309
▁Reb	-8310
▁Vir	-8311
▁XMP	-8312
▁rad	-8313
Tween	-8314
aches	-8315
alion	-8316
cepts	-8317
chnen	-8318
ented	-8319
leben	-8320
paces	-8321
ranch	-8322
uters	-8323
▁Aven	-8324
▁Bill	-8325
▁Gene	-8326
▁HTTP	-8327
▁Netz	-8328
▁Sele	-8329
▁Thom	-8330
aching	-8331
iteral	-8332
lichte	-8333
ordnet	-8334
reicht	-8335
tragen	-8336
urufen	-8337
▁Kreuz	-8338
▁cover	-8339
▁faces	-8340
▁kämpf	-8341
▁linke	-8342
begrenz	-8343
display	-8344
enabled	-8345
pektive	-8346
stempel	-8347
tischer	-8348
▁Balken	-8349
▁Ereign	-8350
▁Manage	-8351
▁OpenGL	-8352
▁Repeat	-8353
▁anhand	-8354
▁confli	-8355
▁ehemal	-8356
▁gefüll	-8357
▁signed	-8358
anguages	-8359
entliche	-8360
lockwise	-8361
▁Anfangs	-8362
▁Exports	-8363
▁Meldung	-8364
▁Messung	-8365
▁Release	-8366
▁account	-8367
▁ignored	-8368
▁reverse	-8369
altfläche	-8370
weisungen	-8371
▁Aufrufen	-8372
▁CheckBox	-8373
▁Luminanz	-8374
▁Vorteile	-8375
▁handling	-8376
▁material	-8377
▁messages	-8378
▁obersten	-8379
▁portions	-8380
▁register	-8381
▁surfaces	-8382
altflächen	-8383
management	-8384
▁Bilddaten	-8385
▁Directory	-8386
▁Empfänger	-8387
▁berechnet	-8388
▁erfordern	-8389
▁exception	-8390
▁identisch	-8391
▁scripting	-8392
▁weiterhin	-8393
▁Internetad	-8394
▁angeordnet	-8395
▁darstellen	-8396
▁kompatibel	-8397
▁optimieren	-8398
▁unsichtbar	-8399
▁verwendete	-8400
▁Duplizieren	-8401
▁calculation	-8402
▁transitions	-8403
Komprimierung	-8404
▁Blogeinträge	-8405
▁Füllmethoden	-8406
▁eingebettete	-8407
▁organisieren	-8408
▁Silbentrennung	-8409
▁Auswahlrechteck	-8410
IS	-8411
ym	-8412
▁—	-8413
Att	-8414
ked	-8415
org	-8416
▁Ka	-8417
Site	-8418
ague	-8419
elly	-8420
iner	-8421
ises	-8422
otes	-8423
ules	-8424
▁189	-8425
▁Ali	-8426
▁Del	-8427
▁Dif	-8428
▁Dro	-8429
▁Lok	-8430
▁bla	-8431
▁eig	-8432
▁sil	-8433
Names	-8434
ament	-8435
arget	-8436
icult	-8437
iding	-8438
olina	-8439
party	-8440
quent	-8441
rifts	-8442
tones	-8443
utzen	-8444
▁Dann	-8445
▁Glow	-8446
▁Keep	-8447
▁ends	-8448
▁quad	-8449
ornado	-8450
ospati	-8451
pektiv	-8452
totype	-8453
▁Bezie	-8454
▁Folge	-8455
▁Gerät	-8456
▁Reduz	-8457
▁Taste	-8458
▁Visio	-8459
▁klass	-8460
▁roles	-8461
reshold	-8462
tiguous	-8463
▁Cursor	-8464
▁Europe	-8465
▁Folder	-8466
▁Szenen	-8467
▁govern	-8468
▁prefix	-8469
▁remote	-8470
▁respec	-8471
Provider	-8472
titution	-8473
▁Auftrag	-8474
▁Barcode	-8475
▁Captain	-8476
▁Identif	-8477
▁Pattern	-8478
▁anstatt	-8479
▁capital	-8480
▁degrees	-8481
▁limited	-8482
▁request	-8483
▁systems	-8484
▁zuletzt	-8485
verhalten	-8486
▁Beleucht	-8487
▁Metadata	-8488
▁schwarze	-8489
▁transfer	-8490
▁verloren	-8491
schreibung	-8492
▁Vanishing	-8493
▁Zeichnung	-8494
▁benötigen	-8495
▁community	-8496
▁darstellt	-8497
▁difficult	-8498
▁flattened	-8499
▁Intensität	-8500
▁Parameters	-8501
▁completely	-8502
▁determined	-8503
▁perspektiv	-8504
▁signatures	-8505
▁Pluszeichen	-8506
▁Unterordner	-8507
▁ermöglichen	-8508
▁formatieren	-8509
▁percentages	-8510
▁respectively	-8511
9.	-8512
AL	-8513
IN	-8514
To	-8515
fi	-8516
gn	-8517
gy	-8518
ny	-8519
sw	-8520
Fol	-8521
bte	-8522
cus	-8523
dom	-8524
hab	-8525
tex	-8526
uel	-8527
▁8.	-8528
ople	-8529
ours	-8530
rief	-8531
▁360	-8532
▁Kol	-8533
▁ann	-8534
▁onM	-8535
▁sto	-8536
Movie	-8537
ierer	-8538
uffix	-8539
ville	-8540
width	-8541
▁2011	-8542
▁2016	-8543
▁Bone	-8544
▁Call	-8545
▁Plug	-8546
▁Prem	-8547
▁Prim	-8548
▁bess	-8549
▁cour	-8550
▁nahm	-8551
▁soft	-8552
▁tele	-8553
▁verd	-8554
Ebenen	-8555
ampion	-8556
avalry	-8557
eigung	-8558
fahnen	-8559
leting	-8560
masken	-8561
reiber	-8562
▁Bilds	-8563
▁great	-8564
▁Anchor	-8565
▁Galley	-8566
▁Gesamt	-8567
▁Israel	-8568
▁Teilne	-8569
▁Testen	-8570
▁consul	-8571
▁degree	-8572
▁ending	-8573
▁faster	-8574
▁lautet	-8575
▁marsch	-8576
▁offers	-8577
▁opaque	-8578
ctuation	-8579
gangenen	-8580
specific	-8581
▁Regular	-8582
▁Scanner	-8583
▁Uhrzeit	-8584
▁sliders	-8585
▁zerstör	-8586
▁Password	-8587
▁Schlacht	-8588
▁creation	-8589
▁URLLoader	-8590
▁aufnehmen	-8591
▁automatic	-8592
▁einfacher	-8593
▁gegenüber	-8594
▁procedure	-8595
▁remaining	-8596
ennzeichnet	-8597
▁Bitmapbild	-8598
▁Washington	-8599
▁erweiterte	-8600
▁extensions	-8601
▁gruppieren	-8602
▁increasing	-8603
▁markierten	-8604
▁verringert	-8605
▁Druckfahnen	-8606
▁interactions	-8607
▁compatibility	-8608
▁transformations	-8609
35	-8610
oo	-8611
zz	-8612
ARP	-8613
gal	-8614
hib	-8615
ych	-8616
äum	-8617
▁5.	-8618
▁Ir	-8619
aken	-8620
frei	-8621
inge	-8622
kBar	-8623
mann	-8624
with	-8625
▁Abf	-8626
▁Gef	-8627
▁Hit	-8628
▁Tre	-8629
▁Tur	-8630
▁cat	-8631
▁dim	-8632
▁due	-8633
▁foo	-8634
▁jus	-8635
▁mul	-8636
▁sug	-8637
Liste	-8638
artet	-8639
ashow	-8640
igten	-8641
ought	-8642
schie	-8643
▁Dest	-8644
▁Dreh	-8645
▁Fund	-8646
▁Gree	-8647
▁Mari	-8648
▁bits	-8649
▁kons	-8650
▁vore	-8651
reiche	-8652
tivity	-8653
umfang	-8654
▁Favor	-8655
▁Feder	-8656
▁Platt	-8657
▁Stamp	-8658
▁Tiefe	-8659
▁achie	-8660
▁asset	-8661
▁divid	-8662
▁draws	-8663
▁geren	-8664
▁gives	-8665
▁jetzt	-8666
▁obere	-8667
▁topic	-8668
▁weist	-8669
▁yards	-8670
related	-8671
working	-8672
▁Behält	-8673
▁Contin	-8674
▁Descri	-8675
▁Domäne	-8676
▁Konsul	-8677
▁Nieder	-8678
▁Pixels	-8679
▁append	-8680
▁conven	-8681
▁destro	-8682
▁erober	-8683
▁margin	-8684
▁passes	-8685
▁perman	-8686
▁photos	-8687
▁scenes	-8688
▁unlike	-8689
▁varies	-8690
sampling	-8691
teuerung	-8692
▁Befehls	-8693
▁Begriff	-8694
▁Lineale	-8695
▁Masters	-8696
▁barcode	-8697
▁colored	-8698
▁erkannt	-8699
▁session	-8700
▁showing	-8701
▁stories	-8702
▁trusted	-8703
▁Dropdown	-8704
▁Eckpunkt	-8705
▁Horizont	-8706
▁Squadron	-8707
▁Toleranz	-8708
▁activate	-8709
▁actually	-8710
▁entering	-8711
▁exchange	-8712
▁footnote	-8713
▁maximale	-8714
▁oberhalb	-8715
▁projects	-8716
▁schnelle	-8717
zeigersinn	-8718
änderungen	-8719
▁Einheiten	-8720
▁Einschrän	-8721
▁identical	-8722
▁schwarzen	-8723
▁teilweise	-8724
▁voreinges	-8725
▁workflows	-8726
anwendungen	-8727
▁Connection	-8728
▁Oberfläche	-8729
▁kombiniert	-8730
▁unterstütz	-8731
▁Mittelpunkt	-8732
▁Perspektive	-8733
▁ProgressBar	-8734
▁abgeflachte	-8735
▁Ausgabehilfe	-8736
▁Proportionen	-8737
▁Uhrzeigersinn	-8738
▁Kompatibilität	-8739
▁Unterschriften	-8740
▁bereitzustellen	-8741
OS	-8742
TE	-8743
rd	-8744
anc	-8745
can	-8746
ids	-8747
uhr	-8748
▁9.	-8749
▁Hi	-8750
▁IS	-8751
▁Lu	-8752
aris	-8753
card	-8754
lern	-8755
loss	-8756
outs	-8757
rome	-8758
tras	-8759
uman	-8760
zier	-8761
▁Abw	-8762
▁Bil	-8763
▁Day	-8764
▁Fle	-8765
▁Pak	-8766
▁Rom	-8767
▁bri	-8768
▁day	-8769
▁fle	-8770
▁hit	-8771
▁süd	-8772
amine	-8773
ctors	-8774
ients	-8775
ified	-8776
ndete	-8777
stead	-8778
viert	-8779
▁2004	-8780
▁2005	-8781
▁2014	-8782
▁Ital	-8783
▁Tele	-8784
▁Turn	-8785
▁Verw	-8786
▁Wird	-8787
▁arri	-8788
▁farb	-8789
▁mach	-8790
▁reve	-8791
▁wick	-8792
▁wide	-8793
abelle	-8794
angles	-8795
iments	-8796
lieder	-8797
ranzös	-8798
stände	-8799
titute	-8800
▁Alarm	-8801
▁Alles	-8802
▁Asian	-8803
▁Falls	-8804
▁Model	-8805
▁Texas	-8806
▁getag	-8807
▁helps	-8808
▁prior	-8809
▁recip	-8810
▁saves	-8811
▁sends	-8812
Manager	-8813
▁Cornel	-8814
▁County	-8815
▁Define	-8816
▁Einzug	-8817
▁Shared	-8818
▁Sprach	-8819
▁bewegt	-8820
▁finish	-8821
▁forces	-8822
▁genaue	-8823
▁intern	-8824
▁klickt	-8825
▁manual	-8826
▁tweens	-8827
clicking	-8828
igkeiten	-8829
polation	-8830
schalter	-8831
schatten	-8832
▁Antwort	-8833
▁Aufgabe	-8834
▁Diashow	-8835
▁Halbton	-8836
▁Modells	-8837
▁Outline	-8838
▁Results	-8839
▁Staaten	-8840
▁Viertel	-8841
▁Wörtern	-8842
▁compile	-8843
▁französ	-8844
▁gezogen	-8845
▁listing	-8846
▁neutral	-8847
▁rotates	-8848
▁snippet	-8849
▁websich	-8850
▁abhängig	-8851
▁affected	-8852
▁attached	-8853
▁aussehen	-8854
▁boundary	-8855
▁erreicht	-8856
▁searches	-8857
▁Kopfzeile	-8858
▁Messungen	-8859
▁Selecting	-8860
▁einfachen	-8861
▁frequency	-8862
▁gemeinsam	-8863
▁gestartet	-8864
▁listeners	-8865
▁parenthes	-8866
▁richtigen	-8867
▁Administer	-8868
▁Exportiert	-8869
▁coordinate	-8870
▁deklariert	-8871
▁explicitly	-8872
▁formatiert	-8873
▁saturation	-8874
definitionen	-8875
▁Unternehmen	-8876
▁Wiederholen	-8877
▁barrierefre	-8878
▁Grafikrahmen	-8879
▁certificates	-8880
▁measurements	-8881
▁Accessibility	-8882
▁Anzeigeobjekts	-8883
▁Ereignisobjekt	-8884
▁Schlagschatten	-8885
-8	-8886
15	-8887
ago	-8888
eps	-8889
kor	-8890
nes	-8891
▁Bi	-8892
▁Pa	-8893
▁Pu	-8894
Nach	-8895
ampf	-8896
appe	-8897
ered	-8898
gend	-8899
izer	-8900
ogar	-8901
serv	-8902
ässt	-8903
▁Cho	-8904
▁Hur	-8905
▁Jes	-8906
▁Män	-8907
▁ext	-8908
▁gan	-8909
▁kam	-8910
▁näh	-8911
SHARP	-8912
Video	-8913
hilfs	-8914
lühen	-8915
ocket	-8916
tigte	-8917
totyp	-8918
ängen	-8919
▁Gold	-8920
▁Krie	-8921
▁able	-8922
▁body	-8923
▁dort	-8924
▁exit	-8925
▁pred	-8926
▁prop	-8927
▁spie	-8928
▁tint	-8929
▁undo	-8930
▁wand	-8931
eignis	-8932
estamp	-8933
läuter	-8934
points	-8935
schlag	-8936
ummern	-8937
undert	-8938
▁Lesen	-8939
▁Peter	-8940
▁abgeb	-8941
▁bring	-8942
▁cache	-8943
▁dabei	-8944
▁loads	-8945
▁mittl	-8946
▁shift	-8947
▁sogar	-8948
▁toler	-8949
lobjekt	-8950
quenzen	-8951
▁Circle	-8952
▁Genehm	-8953
▁Markup	-8954
▁Ränder	-8955
▁Subtra	-8956
▁Virgin	-8957
▁cursor	-8958
▁durchs	-8959
▁entste	-8960
▁heller	-8961
▁prints	-8962
▁slight	-8963
▁unlock	-8964
▁volume	-8965
gespielt	-8966
zuführen	-8967
▁Quality	-8968
▁Schreib	-8969
▁basiert	-8970
▁consist	-8971
▁kerning	-8972
▁kompili	-8973
▁scanner	-8974
ahrschein	-8975
mentieren	-8976
▁Druckert	-8977
▁geeignet	-8978
▁geladene	-8979
▁geospati	-8980
▁matching	-8981
▁restrict	-8982
▁sortiert	-8983
▁Bataillon	-8984
▁Vorschaub	-8985
▁behandelt	-8986
▁logischen	-8987
▁placement	-8988
▁protected	-8989
▁separated	-8990
▁therefore	-8991
▁variieren	-8992
▁Positionen	-8993
▁developers	-8994
▁eigenständ	-8995
▁einbezogen	-8996
▁Beleuchtung	-8997
▁Oberflächen	-8998
▁exportierte	-8999
▁Leserichtung	-9000
▁Seitenzahlen	-9001
▁Zieldokument	-9002
▁interaktiven	-9003
▁unterscheidet	-9004
NE	-9005
TD	-9006
Um	-9007
hu	-9008
tn	-9009
emb	-9010
fäh	-9011
iki	-9012
isk	-9013
rab	-9014
tch	-9015
top	-9016
▁80	-9017
▁Hä	-9018
▁IG	-9019
▁Ko	-9020
▁SF	-9021
▁Ze	-9022
▁jo	-9023
hmer	-9024
laus	-9025
lige	-9026
riss	-9027
sein	-9028
wick	-9029
ying	-9030
zial	-9031
zusp	-9032
▁Bay	-9033
▁Bin	-9034
▁Dig	-9035
▁Lim	-9036
▁Nar	-9037
▁Pay	-9038
▁cle	-9039
▁eye	-9040
▁gar	-9041
▁pol	-9042
▁rob	-9043
▁ske	-9044
▁ten	-9045
allow	-9046
gener	-9047
idung	-9048
ließt	-9049
▁1940	-9050
▁1996	-9051
▁Herr	-9052
▁Jose	-9053
▁MXML	-9054
▁Most	-9055
▁Wild	-9056
▁feed	-9057
▁prom	-9058
▁roll	-9059
▁stud	-9060
etzten	-9061
fachen	-9062
mitted	-9063
ruktur	-9064
tified	-9065
ulator	-9066
▁Split	-9067
▁blogs	-9068
▁notes	-9069
▁semif	-9070
▁turns	-9071
▁zufäl	-9072
ditions	-9073
enebene	-9074
gefügte	-9075
zuheben	-9076
▁Arrays	-9077
▁Offset	-9078
▁Präfix	-9079
▁drafts	-9080
▁exists	-9081
▁expliz	-9082
▁fehlen	-9083
▁linear	-9084
▁rechte	-9085
▁refers	-9086
▁toward	-9087
▁verste	-9088
▁Bericht	-9089
▁Florida	-9090
▁Kinsoku	-9091
▁Ordnern	-9092
▁Richard	-9093
▁Section	-9094
▁Servers	-9095
▁Striche	-9096
▁average	-9097
▁entered	-9098
▁exactly	-9099
▁letters	-9100
▁tracing	-9101
▁vorange	-9102
▁Algorith	-9103
▁Ansichts	-9104
▁Converts	-9105
▁Director	-9106
▁Sekunden	-9107
▁captured	-9108
▁checking	-9109
▁declared	-9110
▁defining	-9111
▁halftone	-9112
▁normalen	-9113
▁purposes	-9114
▁question	-9115
▁scanning	-9116
▁stacking	-9117
▁toString	-9118
▁Authoring	-9119
▁Bedingung	-9120
▁Ligaturen	-9121
▁Rechtecks	-9122
▁Videoclip	-9123
▁animierte	-9124
▁clipboard	-9125
▁gerendert	-9126
▁getaggten	-9127
▁languages	-9128
▁maskieren	-9129
▁Bezeichner	-9130
▁Dictionary	-9131
▁Verwaltung	-9132
▁allgemeine	-9133
▁photograph	-9134
▁specifying	-9135
▁wiederholt	-9136
wahlwerkzeug	-9137
▁Bildschirms	-9138
▁Konvertiert	-9139
▁numerischen	-9140
▁occurrences	-9141
▁synchronize	-9142
▁Druckauftrag	-9143
▁beeinflussen	-9144
▁grundlegende	-9145
▁optimization	-9146
▁zurücksetzen	-9147
▁Seitenbereich	-9148
▁Unterstützung	-9149
▁überschreiben	-9150
▁Farbmanagement	-9151
▁Textabschnitte	-9152
▁Vektorgrafiken	-9153
▁administrative	-9154
▁untergeordnete	-9155
▁veröffentlichte	-9156
Fe	-9157
ef	-9158
ls	-9159
ya	-9160
Int	-9161
abs	-9162
aum	-9163
bal	-9164
gar	-9165
hnt	-9166
ils	-9167
oma	-9168
oud	-9169
zer	-9170
▁HS	-9171
▁sa	-9172
▁vo	-9173
aled	-9174
arth	-9175
iker	-9176
inem	-9177
inst	-9178
legt	-9179
leit	-9180
lett	-9181
oked	-9182
onto	-9183
oten	-9184
phen	-9185
rass	-9186
ript	-9187
tone	-9188
töne	-9189
ubli	-9190
öder	-9191
▁128	-9192
▁Box	-9193
▁Bun	-9194
▁Hex	-9195
▁Hyp	-9196
▁Mid	-9197
▁Not	-9198
▁WAR	-9199
▁bat	-9200
▁bew	-9201
▁emb	-9202
▁fär	-9203
▁grü	-9204
▁gut	-9205
Frame	-9206
armon	-9207
ritte	-9208
ucher	-9209
urate	-9210
▁Cour	-9211
▁Disp	-9212
▁Even	-9213
▁Ursp	-9214
▁axes	-9215
▁fire	-9216
▁tour	-9217
▁trop	-9218
▁virt	-9219
lungen	-9220
tition	-9221
▁Apple	-9222
▁Augen	-9223
▁Child	-9224
▁Hello	-9225
▁Makro	-9226
▁Mount	-9227
▁Subse	-9228
▁alarm	-9229
▁allem	-9230
▁arran	-9231
▁bytes	-9232
▁ideal	-9233
▁mixed	-9234
▁spiel	-9235
▁stops	-9236
▁tells	-9237
erstand	-9238
punkten	-9239
▁Extras	-9240
▁Obwohl	-9241
▁Passen	-9242
▁Pfaden	-9243
▁Setzen	-9244
▁Street	-9245
▁aktive	-9246
▁formed	-9247
▁gewann	-9248
▁inform	-9249
▁socket	-9250
▁stores	-9251
▁verify	-9252
▁zertif	-9253
Umgebung	-9254
ographic	-9255
▁Instead	-9256
▁bessere	-9257
▁bewirkt	-9258
▁discard	-9259
▁kämpfte	-9260
▁steuert	-9261
▁writing	-9262
▁Designer	-9263
▁Formaten	-9264
▁Herunter	-9265
▁callback	-9266
▁geometry	-9267
▁inserted	-9268
▁pressing	-9269
▁Ausdrücke	-9270
▁Australia	-9271
▁Farbmodus	-9272
▁Tabellenz	-9273
▁copyright	-9274
▁erstellte	-9275
▁positions	-9276
▁timestamp	-9277
▁Hilfslinie	-9278
▁bestimmtes	-9279
▁downloaded	-9280
▁frequently	-9281
▁production	-9282
▁Eingabetext	-9283
▁Optimierung	-9284
▁definitions	-9285
▁komprimiert	-9286
▁Bildqualität	-9287
▁Vergrößerung	-9288
▁Vorschaubild	-9289
▁festgelegten	-9290
▁Bildmaterials	-9291
▁Zeilenschalter	-9292
▁bereitgestellt	-9293
3-	-9294
94	-9295
En	-9296
HA	-9297
SA	-9298
ca	-9299
án	-9300
Key	-9301
Map	-9302
bei	-9303
bra	-9304
grü	-9305
lor	-9306
win	-9307
▁CD	-9308
▁Ca	-9309
▁Sü	-9310
atel	-9311
lder	-9312
mmet	-9313
rage	-9314
uche	-9315
upts	-9316
uses	-9317
▁1.5	-9318
▁DTD	-9319
▁Mex	-9320
▁Phi	-9321
▁Pos	-9322
▁Rob	-9323
▁Tom	-9324
▁Wei	-9325
▁dan	-9326
▁fem	-9327
▁hue	-9328
▁sla	-9329
Shape	-9330
anbie	-9331
beled	-9332
erson	-9333
itors	-9334
lonen	-9335
ograf	-9336
produ	-9337
wegen	-9338
▁1990	-9339
▁Ange	-9340
▁Penn	-9341
▁Stör	-9342
▁They	-9343
▁lens	-9344
▁resh	-9345
▁situ	-9346
▁spec	-9347
Policy	-9348
amilie	-9349
annels	-9350
atcher	-9351
itable	-9352
render	-9353
teuert	-9354
uliert	-9355
undene	-9356
▁Blend	-9357
▁Fluss	-9358
▁Kapit	-9359
▁Scott	-9360
▁Space	-9361
▁gehör	-9362
▁isoli	-9363
▁reser	-9364
▁stage	-9365
▁verlä	-9366
Klassen	-9367
istingu	-9368
mitteln	-9369
symbole	-9370
▁Island	-9371
▁Panels	-9372
▁Points	-9373
▁Swatch	-9374
▁anders	-9375
▁bilden	-9376
▁helfen	-9377
▁subtra	-9378
CuePoint	-9379
istenten	-9380
▁Develop	-9381
▁Kompili	-9382
▁Sekunde	-9383
▁animate	-9384
▁beneath	-9385
▁million	-9386
▁passing	-9387
▁placing	-9388
▁schrieb	-9389
dimension	-9390
▁Absatzes	-9391
▁Channels	-9392
▁Ellipsen	-9393
▁Infantry	-9394
▁Synchron	-9395
▁browsers	-9396
▁modifier	-9397
▁threaded	-9398
▁Codezeile	-9399
▁Cornelius	-9400
▁Farbwerte	-9401
▁NetStream	-9402
▁animieren	-9403
▁continued	-9404
▁demselben	-9405
▁gewünscht	-9406
▁maintains	-9407
▁operators	-9408
▁prototype	-9409
▁substring	-9410
▁tolerance	-9411
▁umwandeln	-9412
▁Datentypen	-9413
▁Sounddatei	-9414
▁abgespielt	-9415
▁berücksich	-9416
▁difference	-9417
▁eventually	-9418
▁simulieren	-9419
▁vereinfach	-9420
▁Andernfalls	-9421
▁Ausgewählte	-9422
▁Unterschied	-9423
▁integrierte	-9424
▁parentheses	-9425
Administrator	-9426
▁Anzeigeliste	-9427
▁Begrenzungen	-9428
▁Verschiebung	-9429
▁individually	-9430
▁ursprünglich	-9431
▁Kommunikation	-9432
▁Positionieren	-9433
▁Symbolinstanz	-9434
▁einzubeziehen	-9435
▁Registerkarten	-9436
▁zusammenführen	-9437
Seitenverhältnis	-9438
▁vorangegangenen	-9439
Ac	-9440
MI	-9441
Qu	-9442
gu	-9443
ky	-9444
zü	-9445
API	-9446
fit	-9447
mar	-9448
ods	-9449
▁Ep	-9450
▁Tr	-9451
▁ev	-9452
anks	-9453
cons	-9454
haft	-9455
hier	-9456
icks	-9457
ingt	-9458
ivil	-9459
mals	-9460
ores	-9461
ulen	-9462
▁500	-9463
▁Emp	-9464
▁HSB	-9465
▁Rus	-9466
▁Sab	-9467
▁Sur	-9468
▁bee	-9469
▁dom	-9470
▁enl	-9471
▁mac	-9472
▁sti	-9473
bungs	-9474
quest	-9475
umber	-9476
white	-9477
▁Brad	-9478
▁Camp	-9479
▁Many	-9480
▁Mary	-9481
▁Mith	-9482
▁Näch	-9483
▁Poli	-9484
▁Prin	-9485
▁Prüf	-9486
▁Seit	-9487
▁Will	-9488
▁abzu	-9489
▁bald	-9490
▁berü	-9491
▁camp	-9492
▁dots	-9493
▁ease	-9494
▁eval	-9495
▁prac	-9496
▁self	-9497
▁team	-9498
imeter	-9499
lättet	-9500
matrix	-9501
messen	-9502
omment	-9503
▁Green	-9504
▁Neben	-9505
▁Smith	-9506
▁Staff	-9507
▁langs	-9508
▁relig	-9509
▁spans	-9510
▁thick	-9511
▁weiße	-9512
ennwort	-9513
fassung	-9514
quellen	-9515
▁Behavi	-9516
▁Duplex	-9517
▁Ersatz	-9518
▁Spitze	-9519
▁Stilen	-9520
▁indent	-9521
▁löscht	-9522
▁reflow	-9523
▁serial	-9524
▁Arrange	-9525
▁Brushes	-9526
▁Layouts	-9527
▁Monitor	-9528
▁article	-9529
▁dunkler	-9530
▁heading	-9531
▁history	-9532
▁indexed	-9533
▁rotated	-9534
▁started	-9535
▁testing	-9536
loptionen	-9537
▁Anordnen	-9538
▁Clipping	-9539
▁Entwurfs	-9540
▁Infanter	-9541
▁Sprachen	-9542
▁accurate	-9543
▁envelope	-9544
▁hervorge	-9545
▁interval	-9546
▁kleinere	-9547
▁sampling	-9548
hierarchie	-9549
processing	-9550
▁Erweitern	-9551
▁Grayscale	-9552
▁Kodierung	-9553
▁digitalen	-9554
▁inserting	-9555
▁preceding	-9556
▁verlassen	-9557
▁vorherige	-9558
▁Abschnitte	-9559
▁Categories	-9560
▁Datensätze	-9561
▁Verhaltens	-9562
▁beschreibt	-9563
▁distortion	-9564
▁occurrence	-9565
▁originally	-9566
▁Assignments	-9567
▁Assistenten	-9568
▁Ebenenmaske	-9569
▁Measurement	-9570
▁Vereinigten	-9571
▁Zeitstempel	-9572
▁korrigieren	-9573
▁unverändert	-9574
▁Bibliothekse	-9575
▁Aktualisieren	-9576
▁Blogeinträgen	-9577
▁Herunterladen	-9578
▁Schnittstelle	-9579
▁Steuerelement	-9580
▁vordefinierte	-9581
▁Farbbedienfeld	-9582
▁Großbuchstaben	-9583
▁Tagsbedienfeld	-9584
▁amerikanischer	-9585
▁identifizieren	-9586
▁Schlüsselwörter	-9587
-9	-9588
12	-9589
75	-9590
Can	-9591
ami	-9592
aux	-9593
lah	-9594
loc	-9595
län	-9596
pen	-9597
prä	-9598
▁43	-9599
▁85	-9600
▁EC	-9601
▁UN	-9602
▁vi	-9603
fahr	-9604
lust	-9605
ords	-9606
oser	-9607
send	-9608
tein	-9609
urus	-9610
west	-9611
▁16-	-9612
▁190	-9613
▁32-	-9614
▁Arm	-9615
▁Bob	-9616
▁Fül	-9617
▁Gar	-9618
▁Ham	-9619
▁Jus	-9620
▁Luc	-9621
▁Nam	-9622
▁Sig	-9623
▁Tit	-9624
▁cla	-9625
▁gam	-9626
▁kil	-9627
Class	-9628
Ready	-9629
ester	-9630
group	-9631
hance	-9632
hough	-9633
istan	-9634
osure	-9635
pects	-9636
stile	-9637
tiven	-9638
zimal	-9639
▁Baum	-9640
▁Führ	-9641
▁Gehe	-9642
▁Mass	-9643
▁Merk	-9644
▁Rock	-9645
▁Undo	-9646
▁Viet	-9647
▁care	-9648
▁isol	-9649
▁lädt	-9650
▁wild	-9651
▁zuzu	-9652
Canvas	-9653
alysis	-9654
efined	-9655
gewiss	-9656
itzung	-9657
kanäle	-9658
kommen	-9659
nungen	-9660
pinsel	-9661
sident	-9662
▁Absch	-9663
▁Autom	-9664
▁Creek	-9665
▁Grand	-9666
▁Jahre	-9667
▁Marks	-9668
▁Paris	-9669
▁Round	-9670
▁Stern	-9671
▁Viele	-9672
▁ellip	-9673
▁fewer	-9674
▁indiz	-9675
▁terms	-9676
▁zeich	-9677
Channel	-9678
Polygon	-9679
reichen	-9680
tigkeit	-9681
▁Achsen	-9682
▁Attach	-9683
▁Bildbe	-9684
▁Glyphs	-9685
▁Joseph	-9686
▁Konfli	-9687
▁Kopien	-9688
▁Pfades	-9689
▁Schein	-9690
▁Teilen	-9691
▁Thomas	-9692
▁Upload	-9693
▁driver	-9694
▁falsch	-9695
▁niedri	-9696
▁subset	-9697
▁verseh	-9698
▁würden	-9699
partment	-9700
riterien	-9701
▁Droplet	-9702
▁Warnung	-9703
▁company	-9704
▁exports	-9705
▁notwend	-9706
▁proceed	-9707
▁resized	-9708
▁restore	-9709
gewissern	-9710
▁Although	-9711
▁Exchange	-9712
▁Homepage	-9713
▁Keyboard	-9714
▁Rotation	-9715
▁TileList	-9716
▁Weltkrie	-9717
▁coverage	-9718
▁prepress	-9719
▁receives	-9720
▁richtige	-9721
▁umfassen	-9722
▁weiteren	-9723
inspektors	-9724
▁Geometrie	-9725
▁Techniken	-9726
▁Textmodus	-9727
▁arguments	-9728
▁loslassen	-9729
▁Angenommen	-9730
▁Entwickler	-9731
▁Operatoren	-9732
▁PowerPoint	-9733
▁dispatched	-9734
▁verankerte	-9735
▁punctuation	-9736
▁tatsächlich	-9737
▁Berechnungen	-9738
▁Subselection	-9739
▁bereitstellen	-9740
▁interpretiert	-9741
▁RegularPolygon	-9742
▁eingeschlossen	-9743
▁synchronisieren	-9744
▁unterschiedlich	-9745
öm	-9746
Pal	-9747
ads	-9748
see	-9749
zes	-9750
ämp	-9751
▁DV	-9752
▁DX	-9753
▁Ox	-9754
▁na	-9755
▁ye	-9756
alet	-9757
atio	-9758
aven	-9759
cies	-9760
draw	-9761
male	-9762
ourn	-9763
pfen	-9764
rons	-9765
▁10.	-9766
▁9.0	-9767
▁Lee	-9768
▁USA	-9769
▁Zif	-9770
▁amb	-9771
▁geb	-9772
▁lig	-9773
▁som	-9774
▁swe	-9775
gelte	-9776
ooles	-9777
slice	-9778
ücken	-9779
▁1945	-9780
▁Grau	-9781
▁Hind	-9782
▁Site	-9783
▁Team	-9784
▁Verb	-9785
▁Wand	-9786
▁intu	-9787
▁leer	-9788
▁real	-9789
appsch	-9790
▁Bound	-9791
▁Force	-9792
▁Frage	-9793
▁House	-9794
▁Proxy	-9795
▁conse	-9796
▁effic	-9797
▁eight	-9798
▁photo	-9799
▁schle	-9800
striche	-9801
tworten	-9802
▁Glühen	-9803
▁Größen	-9804
▁Person	-9805
▁Videow	-9806
▁Wenden	-9807
▁Zusätz	-9808
▁angles	-9809
▁auswäh	-9810
▁booles	-9811
▁deploy	-9812
▁thrown	-9813
Grafiken	-9814
Standard	-9815
Vorschau	-9816
umgebung	-9817
▁Ellipse	-9818
▁Flatten	-9819
▁Kommand	-9820
▁Screens	-9821
▁Service	-9822
▁central	-9823
▁deliver	-9824
▁gekrümm	-9825
▁margins	-9826
▁separat	-9827
▁signing	-9828
▁station	-9829
▁tweened	-9830
▁written	-9831
▁Administ	-9832
▁anordnen	-9833
▁aufweist	-9834
▁detailed	-9835
▁distingu	-9836
▁geklickt	-9837
▁referred	-9838
▁reguläre	-9839
▁slightly	-9840
▁Ansichten	-9841
▁Ausfüllen	-9842
▁Composite	-9843
▁Otherwise	-9844
▁desselben	-9845
▁entwerfen	-9846
▁erscheint	-9847
▁formatted	-9848
▁hierarchy	-9849
▁notwendig	-9850
▁verwaltet	-9851
▁Schnappsch	-9852
▁consistent	-9853
▁identifier	-9854
▁ignorieren	-9855
▁maskierten	-9856
▁verschiebt	-9857
formatierung	-9858
▁Platzierung	-9859
▁Schwarzweiß	-9860
▁Zusatzmodul	-9861
▁angeglichen	-9862
▁angezeigten	-9863
▁Angleichungs	-9864
▁Kommentieren	-9865
▁Videodateien	-9866
▁transparente	-9867
▁überlappende	-9868
▁Druckermarken	-9869
▁Programmieren	-9870
▁Schnittmarken	-9871
▁Seitenanzeige	-9872
▁Überfüllungen	-9873
▁Videowiedergabe	-9874
As	-9875
CR	-9876
Im	-9877
pa	-9878
Btn	-9879
Les	-9880
fäl	-9881
für	-9882
rau	-9883
▁Ak	-9884
▁Hü	-9885
▁Os	-9886
▁Ru	-9887
▁Tu	-9888
▁sy	-9889
Date	-9890
atin	-9891
gäng	-9892
otus	-9893
umer	-9894
ülle	-9895
▁150	-9896
▁Dep	-9897
▁Gam	-9898
▁Gew	-9899
▁Gül	-9900
▁Job	-9901
▁McC	-9902
▁Two	-9903
▁Ven	-9904
▁Von	-9905
▁arb	-9906
▁hos	-9907
▁sal	-9908
▁win	-9909
▁äuß	-9910
chter	-9911
coder	-9912
datum	-9913
estiv	-9914
ienen	-9915
isher	-9916
klick	-9917
lassp	-9918
ollar	-9919
onnen	-9920
ralen	-9921
riend	-9922
tices	-9923
ätzen	-9924
▁1970	-9925
▁Entf	-9926
▁Feed	-9927
▁Fern	-9928
▁Kong	-9929
▁Long	-9930
▁Wall	-9931
▁Your	-9932
▁abge	-9933
▁brig	-9934
▁init	-9935
▁pose	-9936
▁präz	-9937
▁rear	-9938
▁uint	-9939
▁zeit	-9940
Picker	-9941
Tweens	-9942
anpass	-9943
gliche	-9944
▁Elect	-9945
▁Extra	-9946
▁Kraft	-9947
▁Polyg	-9948
▁erheb	-9949
▁kurze	-9950
▁pairs	-9951
▁ready	-9952
▁veran	-9953
Bildern	-9954
channel	-9955
etaData	-9956
ifornia	-9957
läutert	-9958
ography	-9959
pending	-9960
viction	-9961
▁Hidden	-9962
▁League	-9963
▁Neuber	-9964
▁PayPal	-9965
▁Rechts	-9966
▁Schräg	-9967
▁achten	-9968
▁assemb	-9969
▁breaks	-9970
▁commer	-9971
▁erster	-9972
▁heraus	-9973
▁notice	-9974
▁offset	-9975
▁taking	-9976
▁troops	-9977
▁viewed	-9978
isierung	-9979
lasspath	-9980
▁Keyword	-9981
▁Mehrere	-9982
▁Organis	-9983
▁bekannt	-9984
▁dragged	-9985
▁erleich	-9986
▁feather	-9987
▁labeled	-9988
▁product	-9989
▁subject	-9990
forderung	-9991
ialogfeld	-9992
sentation	-9993
▁Auftrags	-9994
▁Confeder	-9995
▁Controls	-9996
▁Sammlung	-9997
▁Virginia	-9998
▁attacked	-9999
▁children	-10000
▁mehrerer	-10001
▁midtones	-10002
▁movement	-10003
▁recently	-10004
▁schützen	-10005
▁validate	-10006
▁whenever	-10007
PolicyFile	-10008
geordnetes	-10009
▁Overprint	-10010
▁Vorkommen	-10011
▁demonstra	-10012
▁denselben	-10013
▁einschrän	-10014
▁erläutert	-10015
Konstruktor	-10016
▁Audiodaten	-10017
▁bestätigen	-10018
▁considered	-10019
▁contiguous	-10020
▁erscheinen	-10021
▁learningAS	-10022
▁onMetaData	-10023
▁separately	-10024
▁sharpening	-10025
▁Angleichung	-10026
▁Anpassungen	-10027
▁ColorPicker	-10028
▁Kommentaren	-10029
▁Separations	-10030
▁beschneiden	-10031
▁vorhandenes	-10032
EventListener	-10033
▁Capabilities	-10034
▁Nummerierung	-10035
▁Suchergebnis	-10036
▁durchgeführt	-10037
▁subsequently	-10038
▁Anforderungen	-10039
▁funktionieren	-10040
▁transparenten	-10041
▁Überprüfungen	-10042
▁Unterschreiben	-10043
10	-10044
DAV	-10045
Mac	-10046
SWF	-10047
cre	-10048
hte	-10049
ika	-10050
kel	-10051
ori	-10052
ria	-10053
rog	-10054
ros	-10055
sip	-10056
▁RT	-10057
▁tr	-10058
Work	-10059
acks	-10060
adem	-10061
ehen	-10062
iefe	-10063
loye	-10064
open	-10065
zeug	-10066
▁Ang	-10067
▁Arg	-10068
▁Gil	-10069
▁Rog	-10070
▁Soc	-10071
▁Sun	-10072
▁inn	-10073
Label	-10074
Richt	-10075
ckets	-10076
ideos	-10077
maßen	-10078
räger	-10079
selbe	-10080
tiere	-10081
tiger	-10082
utsch	-10083
uture	-10084
örper	-10085
▁Ganz	-10086
▁Raum	-10087
▁Tabs	-10088
▁Task	-10089
▁blau	-10090
▁fine	-10091
▁prob	-10092
▁upon	-10093
Bitmap	-10094
Pinsel	-10095
cutive	-10096
etings	-10097
kombin	-10098
licies	-10099
omänen	-10100
ressed	-10101
ssigen	-10102
stants	-10103
weight	-10104
▁Afric	-10105
▁Begin	-10106
▁Dauer	-10107
▁Dritt	-10108
▁Filme	-10109
▁Incre	-10110
▁Small	-10111
▁Trenn	-10112
▁Ziele	-10113
▁colle	-10114
▁expla	-10115
▁griff	-10116
▁macht	-10117
▁macro	-10118
▁regel	-10119
▁rules	-10120
▁trotz	-10121
timmung	-10122
▁Gitter	-10123
▁Jersey	-10124
▁Medium	-10125
▁Shadow	-10126
▁Spread	-10127
▁Target	-10128
▁WebDAV	-10129
▁dimmed	-10130
▁elimin	-10131
▁losing	-10132
▁mechan	-10133
▁persön	-10134
▁reason	-10135
Gradient	-10136
etadaten	-10137
ications	-10138
lagerung	-10139
uffering	-10140
▁America	-10141
▁College	-10142
▁Einheit	-10143
▁Konstru	-10144
▁Perform	-10145
▁Scaling	-10146
▁Sortier	-10147
▁enhance	-10148
▁figures	-10149
▁oberste	-10150
▁prompts	-10151
▁referen	-10152
▁reviews	-10153
▁seconds	-10154
▁towards	-10155
bindungen	-10156
▁Befehlen	-10157
▁Fensters	-10158
▁Menübefe	-10159
▁Playback	-10160
▁attempts	-10161
▁auflösen	-10162
▁cropping	-10163
▁entsteht	-10164
▁größeren	-10165
▁liegende	-10166
▁personal	-10167
▁spelling	-10168
▁verteilt	-10169
▁zeichnet	-10170
Portfolios	-10171
zeichnungs	-10172
zeitleiste	-10173
▁Datensatz	-10174
▁Depending	-10175
▁Millionen	-10176
▁Texturmap	-10177
▁downloads	-10178
▁temporary	-10179
Richtlinien	-10180
darstellung	-10181
komposition	-10182
▁Australien	-10183
▁Belichtung	-10184
▁Rückgängig	-10185
▁Teilnehmer	-10186
▁dispatches	-10187
▁predefined	-10188
▁separation	-10189
▁subsequent	-10190
▁Abbildungen	-10191
▁Untergruppe	-10192
▁Vektormaske	-10193
▁proportions	-10194
▁Unterklassen	-10195
▁calculations	-10196
▁integrierten	-10197
▁Eingabehilfen	-10198
▁Schlüsselwort	-10199
▁hervorgehoben	-10200
▁transformiert	-10201
▁versehentlich	-10202
ereinstellungen	-10203
▁Hauptzeitleiste	-10204
RI	-10205
do	-10206
gg	-10207
403	-10208
Tri	-10209
ato	-10210
cup	-10211
ost	-10212
▁0.	-10213
▁40	-10214
▁49	-10215
▁Lö	-10216
▁Ur	-10217
▁Za	-10218
▁mi	-10219
▁ta	-10220
Load	-10221
Skin	-10222
burg	-10223
cked	-10224
onth	-10225
▁DXF	-10226
▁Erm	-10227
▁Gur	-10228
▁III	-10229
▁Lei	-10230
▁Mel	-10231
▁Por	-10232
▁Tun	-10233
▁Zwe	-10234
▁abz	-10235
▁ali	-10236
▁dig	-10237
▁feu	-10238
Folge	-10239
achen	-10240
ansas	-10241
eball	-10242
imarc	-10243
inder	-10244
menge	-10245
pixel	-10246
tereo	-10247
thing	-10248
umble	-10249
▁ECMA	-10250
▁Hill	-10251
▁Matt	-10252
▁Modi	-10253
▁Pins	-10254
▁Situ	-10255
▁bomb	-10256
▁gene	-10257
▁happ	-10258
▁ital	-10259
▁thus	-10260
▁took	-10261
Socket	-10262
enames	-10263
fehler	-10264
folder	-10265
hanced	-10266
ktions	-10267
liches	-10268
lierte	-10269
omerge	-10270
ummary	-10271
▁Bogen	-10272
▁Intel	-10273
▁Lotus	-10274
▁Makes	-10275
▁Minim	-10276
▁Mobil	-10277
▁Mouse	-10278
▁Musik	-10279
▁Quark	-10280
▁Quers	-10281
▁Stils	-10282
▁Trust	-10283
▁bones	-10284
▁brief	-10285
▁daran	-10286
▁grids	-10287
▁inver	-10288
▁lange	-10289
▁timer	-10290
Sandbox	-10291
griffen	-10292
sebenen	-10293
ssymbol	-10294
▁Bereit	-10295
▁France	-10296
▁Little	-10297
▁Marine	-10298
▁Method	-10299
▁Victor	-10300
▁gering	-10301
▁kurzen	-10302
▁people	-10303
▁sugges	-10304
▁topics	-10305
▁zoomen	-10306
volution	-10307
▁Capture	-10308
▁Package	-10309
▁Steuern	-10310
▁Tagging	-10311
▁Versatz	-10312
▁Welcome	-10313
▁achieve	-10314
▁beheben	-10315
▁corners	-10316
▁highest	-10317
▁kodiert	-10318
▁popular	-10319
▁schwarz	-10320
▁squares	-10321
Metadaten	-10322
Nachricht	-10323
▁Argument	-10324
▁Ausricht	-10325
▁Digimarc	-10326
▁Freihand	-10327
▁Function	-10328
▁Geodaten	-10329
▁Quadrate	-10330
▁Republic	-10331
▁arranged	-10332
▁building	-10333
▁collabor	-10334
▁collapse	-10335
▁dieselbe	-10336
▁duration	-10337
▁einzusch	-10338
▁explizit	-10339
▁gemessen	-10340
▁instanti	-10341
▁optimale	-10342
▁wichtige	-10343
references	-10344
▁President	-10345
▁Shortcuts	-10346
▁abzurufen	-10347
▁advantage	-10348
▁associate	-10349
▁besondere	-10350
▁initially	-10351
▁lowercase	-10352
▁partially	-10353
▁umgekehrt	-10354
▁wiederver	-10355
Bedienfelds	-10356
beneinander	-10357
hilfslinien	-10358
▁AlarmClock	-10359
▁Correction	-10360
▁Dateitypen	-10361
▁Ebenenstil	-10362
▁Photomerge	-10363
▁Verschiebt	-10364
▁Videoebene	-10365
▁rasterized	-10366
▁Bildsequenz	-10367
▁Farbpalette	-10368
▁Klassenpfad	-10369
▁Warnmeldung	-10370
▁akzeptieren	-10371
▁eindeutigen	-10372
▁hyphenation	-10373
▁translation	-10374
▁verarbeiten	-10375
Informationen	-10376
▁Bibliotheken	-10377
▁Originalbild	-10378
▁SoundChannel	-10379
▁Verknüpfungs	-10380
▁einschränken	-10381
▁placeholders	-10382
▁vereinfachen	-10383
▁Configuration	-10384
▁Arbeitshandbuch	-10385
▁Transformations	-10386
17	-10387
64	-10388
OP	-10389
PU	-10390
ga	-10391
how	-10392
rip	-10393
uit	-10394
yer	-10395
zul	-10396
▁38	-10397
▁Ga	-10398
▁Na	-10399
alit	-10400
aped	-10401
bten	-10402
ende	-10403
enna	-10404
inus	-10405
king	-10406
pted	-10407
ract	-10408
rote	-10409
rupt	-10410
safe	-10411
sors	-10412
tert	-10413
▁16.	-10414
▁Big	-10415
▁Cle	-10416
▁Dor	-10417
▁Glä	-10418
▁Hor	-10419
▁Que	-10420
▁RTF	-10421
▁UTC	-10422
▁did	-10423
▁ple	-10424
▁pul	-10425
▁röm	-10426
codes	-10427
deckt	-10428
house	-10429
hängt	-10430
malen	-10431
schlä	-10432
tiges	-10433
tiker	-10434
upers	-10435
▁Adds	-10436
▁Into	-10437
▁Isol	-10438
▁Math	-10439
▁Mitg	-10440
▁Navy	-10441
▁RTMP	-10442
▁Raub	-10443
▁Roll	-10444
▁Sold	-10445
▁Trap	-10446
▁acht	-10447
▁caps	-10448
▁desp	-10449
▁gesc	-10450
▁gäng	-10451
▁maps	-10452
abhäng	-10453
atelli	-10454
lished	-10455
messer	-10456
stufen	-10457
tigten	-10458
ultane	-10459
▁Analy	-10460
▁Bates	-10461
▁Class	-10462
▁Graph	-10463
▁Halte	-10464
▁Schul	-10465
▁Statt	-10466
▁alert	-10467
▁artif	-10468
▁chain	-10469
▁endet	-10470
▁wrest	-10471
ausgabe	-10472
otation	-10473
otspots	-10474
riteria	-10475
ulating	-10476
▁Ablauf	-10477
▁Cancel	-10478
▁Finder	-10479
▁Linear	-10480
▁Rename	-10481
▁Umfang	-10482
▁diagon	-10483
▁duplic	-10484
▁freige	-10485
▁indust	-10486
▁intent	-10487
▁rulers	-10488
▁strong	-10489
▁wissen	-10490
▁zugäng	-10491
▁Öffnet	-10492
schieden	-10493
▁Abspiel	-10494
▁Autoren	-10495
▁Dynamic	-10496
▁Gallery	-10497
▁Gleiche	-10498
▁Komprim	-10499
▁Maximum	-10500
▁Systems	-10501
▁classic	-10502
▁encoded	-10503
▁handler	-10504
▁integra	-10505
▁literal	-10506
▁normale	-10507
▁privile	-10508
▁recover	-10509
▁treated	-10510
▁whereas	-10511
sprogramm	-10512
▁Aktuelle	-10513
▁Contents	-10514
▁Prototyp	-10515
▁Remember	-10516
▁Segments	-10517
▁Services	-10518
▁Zeichens	-10519
▁algorith	-10520
▁auftritt	-10521
▁intended	-10522
▁listings	-10523
▁normally	-10524
▁occurred	-10525
▁rendered	-10526
▁repeated	-10527
▁snapshot	-10528
▁targeted	-10529
Anwendungs	-10530
begrenzung	-10531
markierung	-10532
tification	-10533
▁Farbsepar	-10534
▁Standards	-10535
▁Underline	-10536
▁Zeilenumb	-10537
▁möglichen	-10538
▁simultane	-10539
▁undefined	-10540
▁vergleich	-10541
instellungs	-10542
▁Begrenzung	-10543
▁Completing	-10544
▁Halbfinale	-10545
▁Histogramm	-10546
▁Konstanten	-10547
▁Verzerrung	-10548
▁Zeichnungs	-10549
▁Zielobjekt	-10550
▁correction	-10551
▁quarterfin	-10552
▁recipients	-10553
▁rectangles	-10554
▁statischen	-10555
▁Doppelpunkt	-10556
▁Farbbereich	-10557
▁Musterseite	-10558
▁Stattdessen	-10559
▁Stichwörter	-10560
▁abgeblendet	-10561
▁allgemeinen	-10562
▁bearbeitbar	-10563
▁erweiterten	-10564
▁freigegeben	-10565
▁permanently	-10566
▁untersuchen	-10567
Eigenschaften	-10568
ahrscheinlich	-10569
▁Nachzeichner	-10570
▁Querverweise	-10571
▁benachbarten	-10572
▁particularly	-10573
▁Dokumentseite	-10574
▁Druckmaschine	-10575
▁communication	-10576
▁sicherstellen	-10577
▁gekennzeichnet	-10578
▁Vorschaubereich	-10579
-2	-10580
OV	-10581
Of	-10582
US	-10583
dd	-10584
▁©	-10585
Net	-10586
flü	-10587
gyp	-10588
iny	-10589
ona	-10590
oug	-10591
ürz	-10592
▁Kü	-10593
▁Sä	-10594
▁ur	-10595
Path	-10596
Quiz	-10597
angs	-10598
berg	-10599
ense	-10600
ggle	-10601
late	-10602
lone	-10603
play	-10604
rial	-10605
rier	-10606
styp	-10607
udge	-10608
▁250	-10609
▁400	-10610
▁AVM	-10611
▁Asi	-10612
▁Bla	-10613
▁Bru	-10614
▁DIC	-10615
▁Hot	-10616
▁Häl	-10617
▁JIS	-10618
▁Joe	-10619
▁OLE	-10620
▁Sir	-10621
▁TOC	-10622
▁Wor	-10623
▁asi	-10624
▁old	-10625
▁sna	-10626
Press	-10627
aults	-10628
avall	-10629
azine	-10630
fluss	-10631
forms	-10632
named	-10633
oding	-10634
rison	-10635
spfad	-10636
tives	-10637
unten	-10638
using	-10639
▁1995	-10640
▁2015	-10641
▁Both	-10642
▁Cent	-10643
▁Flag	-10644
▁Flug	-10645
▁Lade	-10646
▁Last	-10647
▁Magn	-10648
▁Mars	-10649
▁Ping	-10650
▁Rang	-10651
▁SFTP	-10652
▁deck	-10653
▁enth	-10654
▁fall	-10655
▁fehl	-10656
▁meas	-10657
▁mite	-10658
▁unex	-10659
▁warf	-10660
effekt	-10661
ippets	-10662
orität	-10663
status	-10664
ulture	-10665
▁Court	-10666
▁Magic	-10667
▁Moves	-10668
▁Osten	-10669
▁While	-10670
▁clone	-10671
▁effiz	-10672
▁finds	-10673
▁grand	-10674
▁occup	-10675
▁revol	-10676
▁sieht	-10677
arbeite	-10678
ertifik	-10679
estival	-10680
romedia	-10681
uptsäch	-10682
▁Christ	-10683
▁Duplik	-10684
▁Square	-10685
▁cancel	-10686
▁critic	-10687
▁danach	-10688
▁direct	-10689
▁dissip	-10690
▁expect	-10691
▁figure	-10692
▁future	-10693
▁launch	-10694
▁middle	-10695
▁narrow	-10696
▁picker	-10697
▁quadra	-10698
▁resemb	-10699
▁sailed	-10700
▁scored	-10701
▁sorted	-10702
▁splice	-10703
▁submit	-10704
▁synthe	-10705
▁verble	-10706
▁weisen	-10707
ereignis	-10708
▁Classic	-10709
▁Enthält	-10710
▁Mustern	-10711
▁Process	-10712
▁Reverse	-10713
▁Rückruf	-10714
▁Tracker	-10715
▁Verteid	-10716
▁Visible	-10717
▁aligned	-10718
▁beträgt	-10719
▁bullets	-10720
▁dadurch	-10721
▁disappe	-10722
▁geteilt	-10723
▁paralle	-10724
▁precise	-10725
▁primary	-10726
▁schritt	-10727
▁suppose	-10728
▁verwand	-10729
ansichten	-10730
avallerie	-10731
weiterung	-10732
▁Baseline	-10733
▁Farbtöne	-10734
▁HomeSite	-10735
▁Personen	-10736
▁Protocol	-10737
▁aufgrund	-10738
▁criteria	-10739
▁hardware	-10740
▁measured	-10741
▁military	-10742
▁official	-10743
▁reagiert	-10744
▁reviewer	-10745
▁strength	-10746
▁variiert	-10747
▁ähnliche	-10748
▁Antworten	-10749
▁Beziehung	-10750
▁Endpunkte	-10751
▁Stichwort	-10752
▁Textblock	-10753
▁ausfüllen	-10754
▁empfangen	-10755
▁ermitteln	-10756
▁erreichte	-10757
▁filenames	-10758
▁hauptsäch	-10759
▁increment	-10760
▁modifying	-10761
▁verändern	-10762
ausrichtung	-10763
▁Australian	-10764
▁California	-10765
▁Drittanbie	-10766
▁Hierarchie	-10767
▁Macromedia	-10768
▁Mitteltöne	-10769
▁Richtlinie	-10770
▁beschuldig	-10771
▁inspection	-10772
▁unerwünsch	-10773
▁unexpected	-10774
▁übertragen	-10775
Leserichtung	-10776
▁Fortschritt	-10777
▁Integration	-10778
▁Nachrichten	-10779
▁auszuführen	-10780
▁definierten	-10781
▁endgültigen	-10782
▁independent	-10783
▁Codebeispiel	-10784
▁herzustellen	-10785
▁requirements	-10786
▁öffentlichen	-10787
▁Auswahlrahmen	-10788
▁DrawingCanvas	-10789
▁Standardwerte	-10790
▁hauptsächlich	-10791
▁herunterladen	-10792
▁Anzeigeobjekte	-10793
▁Druckertreiber	-10794
▁Mustervorlagen	-10795
▁simultaneously	-10796
▁zusammengeführt	-10797
,5	-10798
AC	-10799
EE	-10800
MF	-10801
cc	-10802
ORM	-10803
fle	-10804
hel	-10805
ias	-10806
thn	-10807
äte	-10808
örd	-10809
▁35	-10810
▁8-	-10811
▁CC	-10812
▁Ok	-10813
▁SS	-10814
Wire	-10815
aler	-10816
band	-10817
erne	-10818
ghts	-10819
heel	-10820
iben	-10821
ieht	-10822
omen	-10823
orph	-10824
path	-10825
rian	-10826
ummi	-10827
öger	-10828
▁20.	-10829
▁25.	-10830
▁Bef	-10831
▁Kod	-10832
▁Los	-10833
▁Mem	-10834
▁Rod	-10835
▁Sol	-10836
▁Tok	-10837
▁Zuf	-10838
▁Zäh	-10839
▁cru	-10840
▁geg	-10841
▁hon	-10842
▁jag	-10843
▁reb	-10844
▁tor	-10845
▁tun	-10846
▁wra	-10847
▁öst	-10848
Proxy	-10849
affen	-10850
arian	-10851
aters	-10852
brush	-10853
ielle	-10854
labor	-10855
osity	-10856
overs	-10857
ultan	-10858
valid	-10859
▁Gran	-10860
▁Lite	-10861
▁Menu	-10862
▁Mesh	-10863
▁Pier	-10864
▁Verm	-10865
▁army	-10866
▁east	-10867
▁mill	-10868
▁nörd	-10869
▁spir	-10870
▁traf	-10871
Schnit	-10872
Scroll	-10873
Shader	-10874
orized	-10875
termin	-10876
wartet	-10877
▁Freis	-10878
▁India	-10879
▁Maria	-10880
▁Opens	-10881
▁Remov	-10882
▁Shows	-10883
▁Water	-10884
▁XHTML	-10885
▁catch	-10886
▁erase	-10887
▁exclu	-10888
▁lumin	-10889
▁moder	-10890
▁scope	-10891
▁seven	-10892
▁wenig	-10893
ametern	-10894
arteten	-10895
ctories	-10896
gerunde	-10897
ingaben	-10898
rolling	-10899
▁Header	-10900
▁Hälfte	-10901
▁Marker	-10902
▁Pencil	-10903
▁Shapes	-10904
▁Stellt	-10905
▁Tagged	-10906
▁Umwand	-10907
▁Wizard	-10908
▁benutz	-10909
▁blocks	-10910
▁doppel	-10911
▁enough	-10912
▁fließt	-10913
▁histor	-10914
▁inches	-10915
▁movies	-10916
▁myQuiz	-10917
▁neigen	-10918
▁sendet	-10919
▁sphere	-10920
▁verbor	-10921
Adressen	-10922
leistung	-10923
sprozess	-10924
▁Fehlern	-10925
▁Glätten	-10926
▁Pinsels	-10927
▁Special	-10928
▁ability	-10929
▁beinhal	-10930
▁borders	-10931
▁choices	-10932
▁collaps	-10933
▁dritten	-10934
▁happens	-10935
▁members	-10936
▁reached	-10937
▁scatter	-10938
▁sending	-10939
▁sharing	-10940
▁spielte	-10941
▁streams	-10942
▁zugrund	-10943
reibungen	-10944
schnitten	-10945
zeichnete	-10946
▁Bildrate	-10947
▁Editions	-10948
▁Handling	-10949
▁Merkmale	-10950
▁Previous	-10951
▁approach	-10952
▁benennen	-10953
▁bevorzug	-10954
▁composed	-10955
▁diagonal	-10956
▁eintritt	-10957
▁erfassen	-10958
▁geraster	-10959
▁globalen	-10960
▁packages	-10961
▁playhead	-10962
▁produced	-10963
▁reflects	-10964
▁retrieve	-10965
▁rotating	-10966
▁simulate	-10967
▁toolbars	-10968
▁wiederzu	-10969
compatible	-10970
verwaltung	-10971
▁Automatic	-10972
▁Behaviors	-10973
▁Christian	-10974
▁Ereignisp	-10975
▁Farbräume	-10976
▁Interface	-10977
▁Plattform	-10978
▁Rechtecke	-10979
▁Sortieren	-10980
▁artifacts	-10981
▁histogram	-10982
▁implement	-10983
▁intuitive	-10984
▁primarily	-10985
▁printable	-10986
▁sequences	-10987
▁verbinden	-10988
▁Farbprofil	-10989
▁Portfolios	-10990
▁increments	-10991
▁profession	-10992
▁restricted	-10993
▁subclasses	-10994
▁validation	-10995
▁websichere	-10996
▁zuzuweisen	-10997
DisplayState	-10998
▁Abspielkopf	-10999
▁Ereignissen	-11000
▁Grifflinien	-11001
▁Helligkeits	-11002
▁Lichtquelle	-11003
▁Videoebenen	-11004
▁communicate	-11005
▁conditional	-11006
▁effectively	-11007
▁inheritance	-11008
▁Ausrichtungs	-11009
▁Pinselspitze	-11010
▁Pinselspuren	-11011
▁einzublenden	-11012
▁Vergrößerungs	-11013
▁Viertelfinale	-11014
▁hervorzuheben	-11015
▁implementiert	-11016
▁Graustufenbild	-11017
▁Zeichenformate	-11018
Voreinstellungen	-11019
▁Auswahlwerkzeug	-11020
▁Kleinschreibung	-11021
▁Miniaturansicht	-11022
IX	-11023
Ne	-11024
ji	-11025
rt	-11026
PDF	-11027
aks	-11028
asc	-11029
bon	-11030
cip	-11031
gif	-11032
hir	-11033
ieg	-11034
igs	-11035
rel	-11036
▁36	-11037
▁46	-11038
▁52	-11039
▁Lt	-11040
▁MB	-11041
▁NT	-11042
▁PC	-11043
▁Pi	-11044
▁ap	-11045
▁üb	-11046
Disp	-11047
Full	-11048
Vari	-11049
anes	-11050
atal	-11051
bank	-11052
bber	-11053
cast	-11054
haus	-11055
höhe	-11056
ltim	-11057
olve	-11058
otor	-11059
post	-11060
rist	-11061
räge	-11062
unst	-11063
yste	-11064
zing	-11065
▁11.	-11066
▁600	-11067
▁Act	-11068
▁Ann	-11069
▁BMP	-11070
▁Ble	-11071
▁Cla	-11072
▁Fla	-11073
▁Ker	-11074
▁Mik	-11075
▁Neg	-11076
▁Sem	-11077
▁Wer	-11078
▁led	-11079
▁scr	-11080
▁usw	-11081
Mixer	-11082
anker	-11083
atics	-11084
geber	-11085
heast	-11086
istet	-11087
mooth	-11088
mouth	-11089
organ	-11090
rozed	-11091
räfte	-11092
ränkt	-11093
tokol	-11094
ublik	-11095
▁1000	-11096
▁1980	-11097
▁Base	-11098
▁Chic	-11099
▁Fast	-11100
▁Foto	-11101
▁Head	-11102
▁Here	-11103
▁Mong	-11104
▁Räum	-11105
▁Sing	-11106
▁Thre	-11107
▁Zaub	-11108
▁came	-11109
▁coun	-11110
▁diss	-11111
▁doch	-11112
▁epis	-11113
▁gran	-11114
▁inch	-11115
▁lose	-11116
▁poor	-11117
▁walk	-11118
Access	-11119
Player	-11120
drückt	-11121
ielten	-11122
inuier	-11123
listen	-11124
ournal	-11125
▁Cache	-11126
▁Clips	-11127
▁DICOM	-11128
▁Karte	-11129
▁Leert	-11130
▁SCORM	-11131
▁accel	-11132
▁annot	-11133
▁domin	-11134
▁dreht	-11135
▁focal	-11136
▁force	-11137
▁liter	-11138
▁lässt	-11139
▁older	-11140
▁piece	-11141
▁rebel	-11142
▁refle	-11143
▁unbek	-11144
▁unben	-11145
▁weich	-11146
▁wound	-11147
acharac	-11148
borgene	-11149
checken	-11150
familie	-11151
förmige	-11152
inhalte	-11153
ktionen	-11154
usetzen	-11155
▁Aufruf	-11156
▁Canvas	-11157
▁Radier	-11158
▁Scharf	-11159
▁Sequen	-11160
▁analys	-11161
▁family	-11162
▁fertig	-11163
▁leader	-11164
▁reopen	-11165
▁schick	-11166
▁voraus	-11167
gefügten	-11168
zwischen	-11169
▁Abweich	-11170
▁Buttons	-11171
▁Chapter	-11172
▁Encoder	-11173
▁Ersetzt	-11174
▁Filtern	-11175
▁Galerie	-11176
▁Imports	-11177
▁Produkt	-11178
▁Zeigers	-11179
▁cavalry	-11180
▁decimal	-11181
▁deletes	-11182
▁geraden	-11183
▁größten	-11184
▁leaving	-11185
▁overset	-11186
▁sampled	-11187
▁scanned	-11188
▁tagging	-11189
compliant	-11190
orporated	-11191
sensitive	-11192
timierung	-11193
übergänge	-11194
▁Bestimmt	-11195
▁Besucher	-11196
▁Carolina	-11197
▁Includes	-11198
▁Mithilfe	-11199
▁Trapping	-11200
▁Zauberst	-11201
▁gefüllte	-11202
▁headings	-11203
▁leichter	-11204
▁performs	-11205
▁properly	-11206
▁zugrunde	-11207
Dispatcher	-11208
FullScreen	-11209
ampionship	-11210
▁Leertaste	-11211
▁Operanden	-11212
▁Textzeile	-11213
▁XMLSocket	-11214
▁angehängt	-11215
▁berechnen	-11216
▁developed	-11217
▁dieselben	-11218
▁gesteuert	-11219
▁gruppiert	-11220
▁ligatures	-11221
▁nominated	-11222
▁organized	-11223
▁verstehen	-11224
▁versuchte	-11225
überprüfung	-11226
▁Berücksich	-11227
▁ECMAScript	-11228
▁Frankreich	-11229
▁Infanterie	-11230
▁SoundMixer	-11231
▁TimerEvent	-11232
▁Verborgene	-11233
▁benachrich	-11234
▁booleschen	-11235
▁commercial	-11236
▁eyedropper	-11237
▁vergrößert	-11238
▁zugänglich	-11239
▁Bilddateien	-11240
▁Farbauswahl	-11241
▁Smartfilter	-11242
▁Unterklasse	-11243
▁Volltonfarb	-11244
▁Zertifikate	-11245
▁andernfalls	-11246
▁editability	-11247
▁miteinander	-11248
Schnittstelle	-11249
schaltflächen	-11250
▁Blogeintrags	-11251
▁Dateiformate	-11252
▁Unterschrift	-11253
▁Verschlüssel	-11254
▁ausgewähltes	-11255
▁konfiguriert	-11256
▁participants	-11257
▁proportional	-11258
▁rechteckigen	-11259
▁Symbolleisten	-11260
▁Weichzeichnen	-11261
▁Ereignisprozed	-11262
▁Suchergebnisse	-11263
▁Zusammenführen	-11264
ND	-11265
Op	-11266
ta	-11267
Con	-11268
IME	-11269
day	-11270
yph	-11271
▁Py	-11272
▁Wa	-11273
▁ca	-11274
▁ly	-11275
adel	-11276
aily	-11277
aner	-11278
anna	-11279
fect	-11280
fire	-11281
hnte	-11282
nden	-11283
phas	-11284
ragt	-11285
rale	-11286
rats	-11287
rone	-11288
ruft	-11289
tift	-11290
ulus	-11291
▁12.	-11292
▁15.	-11293
▁Bot	-11294
▁Jac	-11295
▁Jag	-11296
▁Mah	-11297
▁Sus	-11298
▁bus	-11299
▁mel	-11300
▁obt	-11301
▁rom	-11302
align	-11303
ausch	-11304
eries	-11305
meter	-11306
orted	-11307
ouver	-11308
rates	-11309
teili	-11310
ushed	-11311
▁1988	-11312
▁Kath	-11313
▁NTSC	-11314
▁Read	-11315
▁Road	-11316
▁Rund	-11317
▁Schl	-11318
▁Sher	-11319
▁Tree	-11320
▁True	-11321
▁erst	-11322
▁fish	-11323
▁fuhr	-11324
▁oval	-11325
▁posi	-11326
▁sank	-11327
▁song	-11328
▁wave	-11329
adding	-11330
altung	-11331
faktor	-11332
liance	-11333
lieren	-11334
läufen	-11335
ndeten	-11336
script	-11337
speich	-11338
▁Anton	-11339
▁Edges	-11340
▁Focus	-11341
▁Franz	-11342
▁Innen	-11343
▁Input	-11344
▁Ratio	-11345
▁Schat	-11346
▁Share	-11347
▁Sharp	-11348
▁URLRe	-11349
▁Wrest	-11350
▁Wählt	-11351
▁dreid	-11352
▁einge	-11353
▁elekt	-11354
▁gehen	-11355
▁gemäß	-11356
▁heavy	-11357
▁offer	-11358
▁polyg	-11359
▁poten	-11360
▁relie	-11361
▁schwe	-11362
▁twice	-11363
edition	-11364
effekte	-11365
example	-11366
ltasten	-11367
ologien	-11368
spunkte	-11369
tempted	-11370
übersch	-11371
▁Andrew	-11372
▁Fields	-11373
▁Gleich	-11374
▁Portug	-11375
▁Public	-11376
▁Rücken	-11377
▁Thumbn	-11378
▁Umriss	-11379
▁begann	-11380
▁blends	-11381
▁erziel	-11382
▁färben	-11383
▁genehm	-11384
▁messen	-11385
▁radial	-11386
▁sieben	-11387
▁social	-11388
▁things	-11389
▁toured	-11390
▁weißen	-11391
Methoden	-11392
Struktur	-11393
bereiten	-11394
ditional	-11395
▁Blenden	-11396
▁Entfern	-11397
▁Geräten	-11398
▁Greeter	-11399
▁Kacheln	-11400
▁Opacity	-11401
▁Räumung	-11402
▁Snippet	-11403
▁Sperren	-11404
▁benannt	-11405
▁ensures	-11406
▁erkennt	-11407
▁holding	-11408
▁meaning	-11409
▁pasting	-11410
erkennung	-11411
▁Aufnahme	-11412
▁Farbraum	-11413
▁Premiere	-11414
▁Ursprung	-11415
▁approxim	-11416
▁auswählt	-11417
▁brackets	-11418
▁deleting	-11419
▁eviction	-11420
▁optimize	-11421
▁pressure	-11422
▁relevant	-11423
▁services	-11424
▁späteren	-11425
▁unmittel	-11426
▁visually	-11427
▁Übersatz	-11428
Bibliothek	-11429
▁Abbrechen	-11430
▁Abspielen	-11431
▁Assistant	-11432
▁Initiator	-11433
▁attempted	-11434
▁detection	-11435
▁embedding	-11436
▁gradually	-11437
▁inherited	-11438
▁initialis	-11439
▁recognize	-11440
▁similarly	-11441
▁standards	-11442
▁streaming	-11443
▁Übergänge	-11444
▁Übersicht	-11445
dimensional	-11446
▁Adjustment	-11447
▁Characters	-11448
▁Horizontal	-11449
▁Kavallerie	-11450
▁Microphone	-11451
▁Signaturen	-11452
▁Touchdowns	-11453
▁URLRequest	-11454
▁Zauberstab	-11455
▁druckbaren	-11456
▁entsperren	-11457
▁entwickelt	-11458
▁flattening	-11459
▁häufigsten	-11460
▁overridden	-11461
▁platzierte	-11462
▁projection	-11463
▁reposition	-11464
▁touchdowns	-11465
▁understand	-11466
markierungen	-11467
▁Bildbereich	-11468
▁Description	-11469
▁Durchmesser	-11470
▁Interactive	-11471
▁Konturfarbe	-11472
▁Metazeichen	-11473
▁Performance	-11474
▁Pfeiltasten	-11475
▁Situationen	-11476
▁aufzunehmen	-11477
▁composition	-11478
▁distributed	-11479
▁japanischen	-11480
▁represented	-11481
▁surrounding	-11482
▁transformed	-11483
▁Bildschirmen	-11484
▁DataProvider	-11485
▁Schriftgröße	-11486
▁distribution	-11487
▁komprimieren	-11488
▁positioniert	-11489
▁schrittweise	-11490
▁Codebeispiele	-11491
▁Erweiterungen	-11492
▁Objektauswahl	-11493
▁Unterstrichen	-11494
▁dreidimension	-11495
ierungsoptionen	-11496
26	-11497
No	-11498
RC	-11499
WA	-11500
ba	-11501
007	-11502
020	-11503
405	-11504
cis	-11505
idn	-11506
iry	-11507
rey	-11508
tär	-11509
udd	-11510
urt	-11511
wor	-11512
yte	-11513
▁29	-11514
▁87	-11515
▁Ax	-11516
▁Kh	-11517
▁MX	-11518
▁Rh	-11519
▁au	-11520
0000	-11521
amin	-11522
asse	-11523
bahn	-11524
frag	-11525
iche	-11526
kins	-11527
neut	-11528
pack	-11529
reat	-11530
utzt	-11531
älen	-11532
önen	-11533
▁14.	-11534
▁Bad	-11535
▁Fal	-11536
▁IPv	-11537
▁Jim	-11538
▁Let	-11539
▁MOV	-11540
▁Pac	-11541
▁Pun	-11542
▁URI	-11543
▁erf	-11544
▁mor	-11545
▁phy	-11546
▁rap	-11547
▁van	-11548
World	-11549
amber	-11550
force	-11551
iders	-11552
iegen	-11553
innen	-11554
leted	-11555
loyee	-11556
ylvan	-11557
▁1944	-11558
▁Bull	-11559
▁Bush	-11560
▁Caps	-11561
▁Case	-11562
▁Herz	-11563
▁Muse	-11564
▁Song	-11565
▁Spit	-11566
▁Stop	-11567
▁bind	-11568
▁cast	-11569
▁engl	-11570
▁lead	-11571
▁poss	-11572
▁prem	-11573
▁skew	-11574
▁tail	-11575
achsen	-11576
chnitt	-11577
ensive	-11578
iraten	-11579
uschen	-11580
wirken	-11581
writer	-11582
▁Atlan	-11583
▁Bevel	-11584
▁China	-11585
▁Clint	-11586
▁Clone	-11587
▁Fonts	-11588
▁Glanz	-11589
▁Jahrh	-11590
▁Kolon	-11591
▁Meter	-11592
▁Party	-11593
▁Reser	-11594
▁Ruler	-11595
▁Stadt	-11596
▁Stufe	-11597
▁Sätze	-11598
▁Topic	-11599
▁Unsch	-11600
▁alten	-11601
▁begle	-11602
▁betra	-11603
▁dient	-11604
▁extre	-11605
▁fortz	-11606
▁neuer	-11607
▁proof	-11608
▁repor	-11609
▁tritt	-11610
▁zogen	-11611
brochen	-11612
grenzen	-11613
mäßigen	-11614
quality	-11615
tillery	-11616
▁Allows	-11617
▁Always	-11618
▁Battle	-11619
▁Bedeut	-11620
▁Client	-11621
▁Edward	-11622
▁Empire	-11623
▁Histor	-11624
▁Leiste	-11625
▁Lokale	-11626
▁Martin	-11627
▁Selbst	-11628
▁Suffix	-11629
▁Vertik	-11630
▁Visual	-11631
▁Wellen	-11632
▁beding	-11633
▁chines	-11634
▁declar	-11635
▁frühen	-11636
▁issues	-11637
▁könnte	-11638
▁langen	-11639
▁medium	-11640
▁nation	-11641
▁schwer	-11642
▁strict	-11643
▁toggle	-11644
Download	-11645
apturing	-11646
auigkeit	-11647
formaten	-11648
standard	-11649
▁Anlagen	-11650
▁Disable	-11651
▁Formats	-11652
▁Montage	-11653
▁Problem	-11654
▁SeekBar	-11655
▁Teilaus	-11656
▁Toolbar	-11657
▁Verlust	-11658
▁angewen	-11659
▁auslöst	-11660
▁frühere	-11661
▁gängige	-11662
▁interag	-11663
▁offenen	-11664
▁princip	-11665
▁scannen	-11666
▁startup	-11667
▁varying	-11668
ellenwert	-11669
schriften	-11670
▁Abstände	-11671
▁Complete	-11672
▁Contrast	-11673
▁Creating	-11674
▁Keywords	-11675
▁Navigate	-11676
▁Soldaten	-11677
▁accident	-11678
▁befolgen	-11679
▁behalten	-11680
▁dispatch	-11681
▁gefangen	-11682
▁interven	-11683
▁opposite	-11684
▁southern	-11685
▁spacebar	-11686
▁Übertrag	-11687
Funktionen	-11688
uperscript	-11689
▁Ausnahmen	-11690
▁Battalion	-11691
▁Laufweite	-11692
▁Navigator	-11693
▁OutputInt	-11694
▁Preserves	-11695
▁QuickInfo	-11696
▁Werkzeugs	-11697
▁Workspace	-11698
▁affecting	-11699
▁fractions	-11700
▁genannten	-11701
▁niedriger	-11702
▁reflected	-11703
▁relativen	-11704
▁scrolling	-11705
▁searching	-11706
▁zentriert	-11707
zuschließen	-11708
▁Brightness	-11709
▁Depression	-11710
▁Einrichten	-11711
▁Grundfarbe	-11712
▁Gruppieren	-11713
▁HelloWorld	-11714
▁Importiert	-11715
▁Maßeinheit	-11716
▁MouseEvent	-11717
▁Processing	-11718
▁Reduzieren	-11719
▁Textzeilen	-11720
▁Werkzeugen	-11721
▁ausgegeben	-11722
▁ausschließ	-11723
▁beliebiges	-11724
▁configured	-11725
▁metacharac	-11726
▁nummeriert	-11727
▁zusätzlich	-11728
Schaltfläche	-11729
bibliotheken	-11730
▁Association	-11731
▁Destination	-11732
▁corresponds	-11733
▁downloading	-11734
▁unmittelbar	-11735
▁vereinfacht	-11736
▁voneinander	-11737
▁Pinselstrich	-11738
▁Schrägstrich	-11739
▁Zoomwerkzeug	-11740
▁continuously	-11741
▁descriptions	-11742
▁fortzusetzen	-11743
teinstellungen	-11744
▁amerikanische	-11745
▁gespeicherten	-11746
▁überlappenden	-11747
▁Nummerierungen	-11748
▁Tabellenzellen	-11749
▁amerikanischen	-11750
▁berücksichtigt	-11751
▁vordefinierten	-11752
▁Bearbeitbarkeit	-11753
▁Einschränkungen	-11754
48	-11755
ci	-11756
ko	-11757
Auf	-11758
fel	-11759
ipl	-11760
oge	-11761
ols	-11762
umi	-11763
uts	-11764
▁Gi	-11765
▁Mr	-11766
▁cr	-11767
▁pi	-11768
▁wa	-11769
anta	-11770
apit	-11771
empl	-11772
kely	-11773
latz	-11774
maße	-11775
miss	-11776
ocra	-11777
oles	-11778
onic	-11779
▁18.	-11780
▁BBC	-11781
▁Bom	-11782
▁CAD	-11783
▁Ech	-11784
▁Erk	-11785
▁Fix	-11786
▁Flo	-11787
▁Get	-11788
▁Kor	-11789
▁Mad	-11790
▁OCR	-11791
▁Ott	-11792
▁Pas	-11793
▁Pet	-11794
▁Ran	-11795
▁Tod	-11796
▁oce	-11797
▁say	-11798
Unter	-11799
alism	-11800
asons	-11801
auern	-11802
cribe	-11803
ersch	-11804
faces	-11805
gummi	-11806
kreuz	-11807
löcke	-11808
ommod	-11809
ringt	-11810
ripts	-11811
rites	-11812
ritis	-11813
schir	-11814
state	-11815
uster	-11816
▁Bowl	-11817
▁Camb	-11818
▁Done	-11819
▁Erhö	-11820
▁Haus	-11821
▁Kein	-11822
▁Like	-11823
▁Mann	-11824
▁Tenn	-11825
▁Zent	-11826
▁acts	-11827
▁bele	-11828
▁hohe	-11829
▁kenn	-11830
▁neun	-11831
▁paar	-11832
▁pick	-11833
▁push	-11834
▁slug	-11835
▁stär	-11836
▁tend	-11837
▁wind	-11838
▁wore	-11839
Effekt	-11840
Farben	-11841
abling	-11842
boards	-11843
erstör	-11844
ertext	-11845
ighten	-11846
ission	-11847
rollen	-11848
teuere	-11849
ulsion	-11850
▁Europ	-11851
▁Guard	-11852
▁Inner	-11853
▁Kuler	-11854
▁Milit	-11855
▁Obers	-11856
▁Photo	-11857
▁Timed	-11858
▁dunkl	-11859
▁hints	-11860
▁kinds	-11861
▁parse	-11862
▁roten	-11863
▁storm	-11864
▁wrote	-11865
gesehen	-11866
horized	-11867
indruck	-11868
rowsern	-11869
sprache	-11870
ystemen	-11871
▁Adding	-11872
▁Erneut	-11873
▁Indexe	-11874
▁Kommas	-11875
▁Lücken	-11876
▁Multip	-11877
▁Starts	-11878
▁Sultan	-11879
▁Symmet	-11880
▁Vorher	-11881
▁belong	-11882
▁binary	-11883
▁chosen	-11884
▁closer	-11885
▁evenly	-11886
▁facing	-11887
▁footer	-11888
▁incomp	-11889
▁kehrte	-11890
▁likely	-11891
▁little	-11892
▁nearly	-11893
▁pieces	-11894
▁prepar	-11895
▁reside	-11896
▁rights	-11897
▁trugen	-11898
▁voller	-11899
tierungs	-11900
vorgänge	-11901
▁Analyse	-11902
▁Bewirkt	-11903
▁Geviert	-11904
▁Install	-11905
▁Texture	-11906
▁Verfolg	-11907
▁Zweiten	-11908
▁abrufen	-11909
▁closing	-11910
▁despite	-11911
▁invalid	-11912
▁marched	-11913
▁optimal	-11914
▁purpose	-11915
▁reports	-11916
▁scratch	-11917
▁stacked	-11918
▁struktu	-11919
▁umgeben	-11920
▁wickets	-11921
verfahren	-11922
zuspielen	-11923
▁Beschrän	-11924
▁Continue	-11925
▁Festival	-11926
▁Konföder	-11927
▁Location	-11928
▁Minister	-11929
▁Rauschen	-11930
▁Schrifts	-11931
▁accommod	-11932
▁ausgeche	-11933
▁erzielte	-11934
▁frameset	-11935
▁national	-11936
▁northern	-11937
▁policies	-11938
▁polygons	-11939
▁responds	-11940
▁rollover	-11941
▁triggers	-11942
▁warnings	-11943
programmen	-11944
zuschlagen	-11945
▁Computers	-11946
▁Konstante	-11947
▁Operation	-11948
▁Präsident	-11949
▁Schattens	-11950
▁Schritten	-11951
▁Umfließen	-11952
▁Verwalten	-11953
▁Zeitpunkt	-11954
▁debugging	-11955
▁dimension	-11956
▁effective	-11957
▁komplexen	-11958
▁mechanism	-11959
▁overrides	-11960
▁political	-11961
▁surrender	-11962
▁verhalten	-11963
Überprüfung	-11964
▁Farbumfang	-11965
▁Parametern	-11966
▁Saturation	-11967
▁Sounddaten	-11968
▁Verteilung	-11969
▁angehalten	-11970
▁durchsucht	-11971
▁exceptions	-11972
▁gedruckten	-11973
▁kompiliert	-11974
▁kontinuier	-11975
▁speziellen	-11976
▁Überprüfen	-11977
▁Übersichts	-11978
▁Ergebnissen	-11979
▁Jahrhundert	-11980
▁Komposition	-11981
▁Masterseite	-11982
▁Programming	-11983
▁differently	-11984
▁encountered	-11985
▁verursachen	-11986
Konvertierung	-11987
▁Baumstruktur	-11988
▁Prozentwerte	-11989
▁bereitstellt	-11990
▁demonstrates	-11991
▁eingebundene	-11992
▁kennzeichnen	-11993
▁komprimierte	-11994
▁organization	-11995
▁zwischengesp	-11996
▁Montagefläche	-11997
▁Verschiebungs	-11998
▁bearbeitbaren	-11999
▁quarterfinals	-12000
▁verschachtelt	-12001
▁zugeschnitten	-12002
▁Bereitstellung	-12003
▁Schriftfamilie	-12004
▁nachzuschlagen	-12005
▁representation	-12006
▁wahrscheinlich	-12007
▁Internetadresse	-12008
,1	-12009
30	-12010
CL	-12011
ATL	-12012
Ass	-12013
Hel	-12014
Sli	-12015
TPS	-12016
aya	-12017
het	-12018
ips	-12019
met	-12020
ota	-12021
tru	-12022
uge	-12023
una	-12024
▁Bä	-12025
▁DN	-12026
▁Dr	-12027
▁Hu	-12028
▁Hy	-12029
▁XP	-12030
▁cm	-12031
▁ow	-12032
2000	-12033
Live	-12034
Test	-12035
atür	-12036
brit	-12037
heim	-12038
iens	-12039
igan	-12040
ilen	-12041
itex	-12042
itis	-12043
laub	-12044
ming	-12045
oned	-12046
only	-12047
quis	-12048
rank	-12049
rige	-12050
room	-12051
sely	-12052
thur	-12053
▁185	-12054
▁188	-12055
▁7.0	-12056
▁Bor	-12057
▁But	-12058
▁Fam	-12059
▁Hue	-12060
▁ICC	-12061
▁Lie	-12062
▁Rat	-12063
▁Upd	-12064
▁bur	-12065
▁che	-12066
▁hor	-12067
▁imm	-12068
▁les	-12069
▁lic	-12070
▁wei	-12071
ATLAB	-12072
Inhal	-12073
ering	-12074
etzer	-12075
iebel	-12076
iring	-12077
lient	-12078
liert	-12079
oment	-12080
prech	-12081
recht	-12082
riage	-12083
stone	-12084
ufact	-12085
value	-12086
vides	-12087
zwert	-12088
▁1943	-12089
▁1964	-12090
▁1969	-12091
▁2013	-12092
▁2018	-12093
▁Brit	-12094
▁Cong	-12095
▁Dark	-12096
▁Gelb	-12097
▁Hart	-12098
▁MPEG	-12099
▁Pake	-12100
▁Priv	-12101
▁Ring	-12102
▁Same	-12103
▁Tour	-12104
▁UNIX	-12105
▁asyn	-12106
▁bird	-12107
▁blie	-12108
▁come	-12109
▁dead	-12110
▁erzw	-12111
▁game	-12112
▁halo	-12113
▁lief	-12114
▁logo	-12115
▁news	-12116
▁nine	-12117
▁shif	-12118
OError	-12119
deshow	-12120
esting	-12121
ething	-12122
frames	-12123
hungen	-12124
iegelt	-12125
infall	-12126
kunden	-12127
onsole	-12128
orrect	-12129
roffen	-12130
sdatei	-12131
stream	-12132
upload	-12133
wachen	-12134
▁Break	-12135
▁Brenn	-12136
▁Georg	-12137
▁Gleit	-12138
▁Insel	-12139
▁Menge	-12140
▁Minus	-12141
▁Serie	-12142
▁Value	-12143
▁Wales	-12144
▁benef	-12145
▁enden	-12146
▁getwe	-12147
▁kommt	-12148
▁kreis	-12149
▁nimmt	-12150
▁outer	-12151
▁roman	-12152
▁stock	-12153
▁world	-12154
atively	-12155
diagram	-12156
inträch	-12157
lichten	-12158
ologies	-12159
ordaten	-12160
raphics	-12161
ultural	-12162
ungspro	-12163
▁Enclos	-12164
▁Indent	-12165
▁Lassen	-12166
▁MATLAB	-12167
▁Namens	-12168
▁Scitex	-12169
▁Texted	-12170
▁Unlike	-12171
▁Wolver	-12172
▁alphan	-12173
▁branch	-12174
▁broken	-12175
▁bullet	-12176
▁choice	-12177
▁detect	-12178
▁distra	-12179
▁easing	-12180
▁ignore	-12181
▁intact	-12182
▁joined	-12183
▁kommen	-12184
▁kommun	-12185
▁lights	-12186
▁ranges	-12187
▁revert	-12188
▁scales	-12189
▁schwen	-12190
▁seines	-12191
▁served	-12192
▁strike	-12193
▁suffer	-12194
▁videos	-12195
▁ähneln	-12196
Formular	-12197
Vorgaben	-12198
isierten	-12199
selected	-12200
zusetzen	-12201
▁Ausspar	-12202
▁Codeaus	-12203
▁Kanonen	-12204
▁Schärfe	-12205
▁Selects	-12206
▁Society	-12207
▁Spacing	-12208
▁Zerstör	-12209
▁Zustand	-12210
▁accepts	-12211
▁assigns	-12212
▁blended	-12213
▁declare	-12214
▁designs	-12215
▁execute	-12216
▁gesperr	-12217
▁hochwer	-12218
▁hosting	-12219
▁instant	-12220
▁interce	-12221
▁involve	-12222
▁layouts	-12223
▁masters	-12224
▁polygon	-12225
▁tornado	-12226
▁uniform	-12227
geführten	-12228
meldungen	-12229
variablen	-12230
▁Einzelne	-12231
▁Objektiv	-12232
▁Reaktion	-12233
▁benötigt	-12234
▁circular	-12235
▁conflict	-12236
▁products	-12237
▁resource	-12238
▁signiert	-12239
▁verfolgt	-12240
▁yourself	-12241
produktion	-12242
▁BlendMode	-12243
▁Dimension	-12244
▁Gleitkomm	-12245
▁Numbering	-12246
▁Optimizer	-12247
▁Schreiben	-12248
▁geglättet	-12249
▁intervals	-12250
▁mittleren	-12251
▁negativen	-12252
▁visuellen	-12253
▁Änderungs	-12254
Koordinaten	-12255
Optimierung	-12256
allowDomain	-12257
ufferingBar	-12258
▁Ausgabeger	-12259
▁Formularen	-12260
▁Neuberechn	-12261
▁Quelldatei	-12262
▁Zusätzlich	-12263
▁advantages	-12264
▁akzeptiert	-12265
▁experience	-12266
▁experiment	-12267
▁onCuePoint	-12268
▁pasteboard	-12269
▁performing	-12270
▁references	-12271
▁veranschau	-12272
▁Augensymbol	-12273
▁Maskenebene	-12274
▁Radiergummi	-12275
▁abzuspielen	-12276
▁ausgedrückt	-12277
▁benachbarte	-12278
▁photographs	-12279
▁Durchschnitt	-12280
▁Farbverlaufs	-12281
▁Kompilierung	-12282
▁Pixelauswahl	-12283
▁Steuerpunkte	-12284
▁Zurücksetzen	-12285
▁Benutzernamen	-12286
▁Dateiformaten	-12287
▁Schnappschuss	-12288
▁Schwellenwert	-12289
Auswahlwerkzeug	-12290
▁Formatierungen	-12291
▁eigenständigen	-12292
▁Kleinbuchstaben	-12293
▁untergeordnetes	-12294
EN	-12295
ES	-12296
RA	-12297
iö	-12298
ki	-12299
ßt	-12300
Typ	-12301
fon	-12302
lav	-12303
mas	-12304
rak	-12305
ret	-12306
rif	-12307
sto	-12308
tle	-12309
ört	-12310
▁DW	-12311
▁Fi	-12312
▁MV	-12313
▁SD	-12314
▁Tw	-12315
Drag	-12316
aked	-12317
alif	-12318
ckte	-12319
fehl	-12320
hing	-12321
issi	-12322
itar	-12323
kehr	-12324
mond	-12325
orns	-12326
orte	-12327
osph	-12328
pedo	-12329
rain	-12330
rika	-12331
rise	-12332
tist	-12333
ught	-12334
well	-12335
äufe	-12336
▁Fel	-12337
▁Ign	-12338
▁Old	-12339
▁Tal	-12340
▁adv	-12341
▁alb	-12342
▁hei	-12343
▁mut	-12344
▁shr	-12345
▁wid	-12346
Notiz	-12347
akter	-12348
asses	-12349
atory	-12350
eller	-12351
iling	-12352
illen	-12353
ograp	-12354
orfen	-12355
oting	-12356
ssige	-12357
start	-12358
worth	-12359
▁AICC	-12360
▁Aspe	-12361
▁Bind	-12362
▁Duke	-12363
▁Foot	-12364
▁Ford	-12365
▁Glas	-12366
▁Hung	-12367
▁Laut	-12368
▁Mach	-12369
▁Nein	-12370
▁Plan	-12371
▁Sand	-12372
▁Shar	-12373
▁Soft	-12374
▁Temp	-12375
▁Vist	-12376
▁card	-12377
▁indu	-12378
▁insp	-12379
▁rede	-12380
▁stür	-12381
▁tips	-12382
▁trib	-12383
Shadow	-12384
adrons	-12385
domäne	-12386
hellen	-12387
hrough	-12388
rolled	-12389
sively	-12390
tities	-12391
ussion	-12392
wanted	-12393
▁Blank	-12394
▁Daher	-12395
▁Elekt	-12396
▁Exper	-12397
▁Feuer	-12398
▁Films	-12399
▁HTTPS	-12400
▁Laura	-12401
▁Opfer	-12402
▁Passt	-12403
▁Repar	-12404
▁Stack	-12405
▁analy	-12406
▁atten	-12407
▁breit	-12408
▁codec	-12409
▁codes	-12410
▁ganze	-12411
▁geänd	-12412
▁heben	-12413
▁natur	-12414
▁occas	-12415
▁phone	-12416
▁rufen	-12417
▁shear	-12418
▁ungül	-12419
▁usage	-12420
alismus	-12421
nummern	-12422
ryption	-12423
seffekt	-12424
ständen	-12425
ylvania	-12426
zipiert	-12427
▁Aspect	-12428
▁Boston	-12429
▁Knoten	-12430
▁Mobile	-12431
▁Nested	-12432
▁Places	-12433
▁Prüfen	-12434
▁Relief	-12435
▁Smooth	-12436
▁Unters	-12437
▁aufgel	-12438
▁aussch	-12439
▁authen	-12440
▁beides	-12441
▁dritte	-12442
▁equals	-12443
▁marked	-12444
▁plates	-12445
▁recent	-12446
▁setzte	-12447
▁shades	-12448
▁tracks	-12449
▁vorbei	-12450
▁ältere	-12451
aturated	-12452
oriented	-12453
seffekte	-12454
▁Artwork	-12455
▁Bewegen	-12456
▁Chicago	-12457
▁Console	-12458
▁Cursors	-12459
▁Entries	-12460
▁Finally	-12461
▁Minimum	-12462
▁Russian	-12463
▁Schnell	-12464
▁circles	-12465
▁demonst	-12466
▁discuss	-12467
▁episode	-12468
▁headers	-12469
▁höchste	-12470
▁inserts	-12471
▁letting	-12472
▁richtet	-12473
▁rounded	-12474
▁stammen	-12475
▁verlust	-12476
abhängige	-12477
merkungen	-12478
teilungen	-12479
▁Analysis	-12480
▁Druckers	-12481
▁Envelope	-12482
▁Imagemap	-12483
▁Projekte	-12484
▁Sequence	-12485
▁Vertical	-12486
▁approval	-12487
▁beziehen	-12488
▁defaults	-12489
▁finishes	-12490
▁handlers	-12491
▁involves	-12492
▁nonprint	-12493
▁numerous	-12494
▁overview	-12495
▁probably	-12496
▁protocol	-12497
▁reducing	-12498
▁unwanted	-12499
verbindung	-12500
wörterbuch	-12501
▁Alexander	-12502
▁Bedeutung	-12503
▁Greetings	-12504
▁Malgruppe	-12505
▁Mausklick	-12506
▁Nachricht	-12507
▁Störungen	-12508
▁beschleun	-12509
▁britische	-12510
▁calculate	-12511
▁consisted	-12512
▁defeating	-12513
▁establish	-12514
▁quotation	-12515
▁sichtbare	-12516
▁subfolder	-12517
▁thickness	-12518
▁threshold	-12519
assistenten	-12520
eigenschaft	-12521
▁Background	-12522
▁Ermöglicht	-12523
▁Namespaces	-12524
▁Sortierung	-12525
▁Texteditor	-12526
▁Untertitel	-12527
▁Vergrößern	-12528
▁ehemaligen	-12529
▁extrahiert	-12530
▁konzipiert	-12531
▁numerische	-12532
▁referenced	-12533
▁semifinals	-12534
▁variations	-12535
▁verbessert	-12536
▁zahlreiche	-12537
Schriftarten	-12538
▁Grafikstile	-12539
▁Instanzname	-12540
▁Satzzeichen	-12541
▁Vektordaten	-12542
▁accommodate	-12543
▁assignments	-12544
▁aufgelistet	-12545
▁deklarieren	-12546
▁instruction	-12547
▁programmers	-12548
▁unsichtbare	-12549
▁Überschrift	-12550
verarbeitungs	-12551
▁Anfangspunkt	-12552
▁Ausgabegerät	-12553
▁accidentally	-12554
▁gespeicherte	-12555
▁unerwünschte	-12556
▁Bildauflösung	-12557
▁Farbkorrektur	-12558
▁Freistellungs	-12559
▁Interaktionen	-12560
▁Musterelement	-12561
▁Stiftwerkzeug	-12562
▁Zellenformate	-12563
▁abgeschnitten	-12564
▁erforderliche	-12565
▁identifiziert	-12566
▁konvertierten	-12567
▁unseparierten	-12568
▁unterstützten	-12569
schlüsselbilder	-12570
▁Betriebssystems	-12571
4.	-12572
92	-12573
GP	-12574
bl	-12575
gi	-12576
kü	-12577
uh	-12578
zo	-12579
005	-12580
012	-12581
Fot	-12582
Nav	-12583
arl	-12584
exe	-12585
ila	-12586
ini	-12587
kit	-12588
ois	-12589
oto	-12590
▁2-	-12591
▁3-	-12592
▁70	-12593
▁76	-12594
▁NC	-12595
▁Ot	-12596
▁WB	-12597
▁mm	-12598
▁pp	-12599
▁wü	-12600
▁ze	-12601
Arbe	-12602
Cell	-12603
adec	-12604
alem	-12605
anth	-12606
bury	-12607
cure	-12608
dent	-12609
esch	-12610
fine	-12611
hall	-12612
igte	-12613
mmer	-12614
onym	-12615
oute	-12616
seud	-12617
▁24.	-12618
▁Abd	-12619
▁Ark	-12620
▁Gro	-12621
▁Ist	-12622
▁Jud	-12623
▁Ort	-12624
▁PMI	-12625
▁Tin	-12626
▁Umb	-12627
▁anf	-12628
▁ich	-12629
▁lpi	-12630
▁rag	-12631
▁sex	-12632
▁wor	-12633
Fotog	-12634
adian	-12635
aired	-12636
akers	-12637
amond	-12638
askat	-12639
diers	-12640
digen	-12641
erius	-12642
fully	-12643
ilipp	-12644
losen	-12645
media	-12646
mpath	-12647
nisse	-12648
skala	-12649
ssatz	-12650
teren	-12651
vents	-12652
while	-12653
▁Adap	-12654
▁Auch	-12655
▁Bund	-12656
▁Club	-12657
▁Cyan	-12658
▁Doug	-12659
▁Faux	-12660
▁Fred	-12661
▁Gott	-12662
▁Hers	-12663
▁Leon	-12664
▁Lich	-12665
▁Rows	-12666
▁Stap	-12667
▁Wind	-12668
▁bats	-12669
▁bege	-12670
▁bild	-12671
▁bold	-12672
▁dens	-12673
▁done	-12674
▁geht	-12675
▁graf	-12676
▁mist	-12677
▁phil	-12678
▁punt	-12679
▁spac	-12680
▁tief	-12681
▁vert	-12682
▁vice	-12683
▁zwar	-12684
Weblog	-12685
alerie	-12686
alists	-12687
beding	-12688
chseln	-12689
design	-12690
igungs	-12691
issipp	-12692
ounted	-12693
punkts	-12694
rische	-12695
signed	-12696
älchen	-12697
▁Album	-12698
▁Artic	-12699
▁Autob	-12700
▁Corps	-12701
▁Draht	-12702
▁Erste	-12703
▁Gamma	-12704
▁Hülle	-12705
▁Immer	-12706
▁Kunst	-12707
▁Major	-12708
▁Music	-12709
▁Musli	-12710
▁Oklah	-12711
▁Penns	-12712
▁Saint	-12713
▁Trace	-12714
▁Verer	-12715
▁Vista	-12716
▁essen	-12717
▁flank	-12718
▁hohen	-12719
▁micro	-12720
▁music	-12721
▁night	-12722
▁rates	-12723
▁setzt	-12724
▁unerw	-12725
▁unsch	-12726
▁untag	-12727
Ausgabe	-12728
Modells	-12729
enstern	-12730
etzungs	-12731
isecond	-12732
laufend	-12733
mediate	-12734
oftware	-12735
pectrum	-12736
prozess	-12737
▁Avenue	-12738
▁Checks	-12739
▁Harmon	-12740
▁Hitler	-12741
▁Magnet	-12742
▁Marcus	-12743
▁Museum	-12744
▁Oxford	-12745
▁Prints	-12746
▁Regeln	-12747
▁Saskat	-12748
▁Second	-12749
▁course	-12750
▁defend	-12751
▁findet	-12752
▁killed	-12753
▁leaves	-12754
▁mainly	-12755
▁notify	-12756
▁spezif	-12757
▁tablet	-12758
▁termin	-12759
▁tragen	-12760
Attribut	-12761
Objekten	-12762
activity	-12763
adecimal	-12764
gesetzte	-12765
handlung	-12766
schaften	-12767
▁Builder	-12768
▁Combine	-12769
▁Distort	-12770
▁Erhöhen	-12771
▁Folders	-12772
▁Indizes	-12773
▁Initial	-12774
▁Johnson	-12775
▁Richtet	-12776
▁Scannen	-12777
▁Schließ	-12778
▁Similar	-12779
▁Western	-12780
▁balance	-12781
▁bombard	-12782
▁crossed	-12783
▁descend	-12784
▁domains	-12785
▁einfarb	-12786
▁enlarge	-12787
▁extract	-12788
▁indexes	-12789
▁lighten	-12790
▁ordered	-12791
▁präzise	-12792
▁records	-12793
▁reorder	-12794
▁richtig	-12795
▁segelte	-12796
▁someone	-12797
▁spätere	-12798
▁stretch	-12799
▁topmost	-12800
▁verlang	-12801
▁wandelt	-12802
▁zerstre	-12803
Werkzeugs	-12804
anpassung	-12805
lications	-12806
ransparen	-12807
verzeichn	-12808
▁Amerikan	-12809
▁Consider	-12810
▁Instance	-12811
▁Polygone	-12812
▁Replaces	-12813
▁UILoader	-12814
▁allowing	-12815
▁elektron	-12816
▁expected	-12817
▁extended	-12818
▁farbigen	-12819
▁independ	-12820
▁instanzi	-12821
▁mehrmals	-12822
▁spiegeln	-12823
▁springen	-12824
▁visuelle	-12825
Farbwähler	-12826
bildschirm	-12827
eihenfolge	-12828
filesystem	-12829
▁Beschnitt	-12830
▁Debugging	-12831
▁Developer	-12832
▁Fußzeilen	-12833
▁Libraries	-12834
▁Quellbild	-12835
▁ScrollBar	-12836
▁classpath	-12837
▁constants	-12838
▁decreases	-12839
▁gewählten	-12840
▁luminance	-12841
▁meanwhile	-12842
▁niedrigen	-12843
▁primitive	-12844
▁reagieren	-12845
▁repeating	-12846
▁reproduce	-12847
▁secondary	-12848
▁uppercase	-12849
druckfarben	-12850
zeichnungen	-12851
▁Distribute	-12852
▁Fundstelle	-12853
▁Gültigkeit	-12854
▁Herrschaft	-12855
▁Malgruppen	-12856
▁MetaWeblog	-12857
▁Mississipp	-12858
▁ShaderData	-12859
▁Umwandlung	-12860
▁konsistent	-12861
▁positioned	-12862
▁situations	-12863
▁substitute	-12864
▁technology	-12865
ScriptAccess	-12866
▁Alternative	-12867
▁Bezugspunkt	-12868
▁Definitions	-12869
▁Kapitälchen	-12870
▁einzubetten	-12871
▁millisecond	-12872
▁progressive	-12873
▁spreadsheet	-12874
kombinationen	-12875
▁Championship	-12876
▁Farbverläufe	-12877
▁Trennzeichen	-12878
▁professional	-12879
▁Interpolation	-12880
▁Beschreibungen	-12881
▁Beschränkungen	-12882
▁Kommentarliste	-12883
▁einzuschließen	-12884
▁resultierenden	-12885
▁sichergestellt	-12886
▁zurückzusetzen	-12887
▁Berücksichtigen	-12888
▁Konturattribute	-12889
▁Konturenführung	-12890
▁verschachtelten	-12891
And	-12892
ITT	-12893
agt	-12894
azi	-12895
imp	-12896
kru	-12897
lem	-12898
ofs	-12899
onn	-12900
oul	-12901
sib	-12902
tia	-12903
vey	-12904
ömm	-12905
▁TV	-12906
▁WA	-12907
anne	-12908
aved	-12909
dict	-12910
eilt	-12911
etts	-12912
hang	-12913
lope	-12914
ocol	-12915
omes	-12916
otal	-12917
reit	-12918
riel	-12919
uing	-12920
umps	-12921
user	-12922
▁30.	-12923
▁Cha	-12924
▁Cri	-12925
▁Cyc	-12926
▁Equ	-12927
▁Erd	-12928
▁Ged	-12929
▁Gla	-12930
▁Hei	-12931
▁ISO	-12932
▁Nie	-12933
▁PRC	-12934
▁RAM	-12935
▁Sob	-12936
▁Sow	-12937
▁Tar	-12938
▁abf	-12939
▁big	-12940
▁cyc	-12941
▁dat	-12942
▁erh	-12943
▁fif	-12944
▁har	-12945
▁hex	-12946
▁law	-12947
▁zer	-12948
Proje	-12949
bruch	-12950
gemäß	-12951
gerte	-12952
ionen	-12953
ischt	-12954
istyp	-12955
itete	-12956
lette	-12957
letts	-12958
names	-12959
notes	-12960
ommun	-12961
spiel	-12962
stein	-12963
usted	-12964
änden	-12965
▁2002	-12966
▁Barn	-12967
▁Chal	-12968
▁Defa	-12969
▁Diff	-12970
▁Fett	-12971
▁Gest	-12972
▁Höch	-12973
▁Malt	-12974
▁Oval	-12975
▁Poly	-12976
▁Prof	-12977
▁Requ	-12978
▁Sich	-12979
▁Stud	-12980
▁Time	-12981
▁Used	-12982
▁Verd	-12983
▁cere	-12984
▁core	-12985
▁duot	-12986
▁hair	-12987
▁kept	-12988
▁mass	-12989
▁nahe	-12990
▁paus	-12991
▁sRGB	-12992
▁shot	-12993
▁stab	-12994
▁trou	-12995
▁trug	-12996
armony	-12997
iently	-12998
import	-12999
ingabe	-13000
itched	-13001
liegen	-13002
resses	-13003
riters	-13004
schten	-13005
system	-13006
▁Basic	-13007
▁Brand	-13008
▁Eisen	-13009
▁Email	-13010
▁Firef	-13011
▁Focol	-13012
▁Grafi	-13013
▁Graut	-13014
▁Great	-13015
▁Klass	-13016
▁Large	-13017
▁Queen	-13018
▁Sovie	-13019
▁Süden	-13020
▁Units	-13021
▁appar	-13022
▁claim	-13023
▁hoher	-13024
▁löste	-13025
▁magne	-13026
▁month	-13027
▁natür	-13028
▁newly	-13029
▁offiz	-13030
▁pause	-13031
▁recon	-13032
▁thous	-13033
▁trägt	-13034
▁töten	-13035
▁tötet	-13036
▁vorge	-13037
▁weigh	-13038
▁überf	-13039
Arbeits	-13040
britann	-13041
changed	-13042
drücken	-13043
eighbor	-13044
istungs	-13045
itation	-13046
kategor	-13047
lättern	-13048
ributed	-13049
sparent	-13050
steigen	-13051
ublikan	-13052
unition	-13053
▁Anders	-13054
▁Church	-13055
▁Commit	-13056
▁Druckt	-13057
▁Eraser	-13058
▁Follow	-13059
▁Gesetz	-13060
▁Kreise	-13061
▁Slider	-13062
▁Values	-13063
▁Zwecke	-13064
▁almost	-13065
▁arrays	-13066
▁arrows	-13067
▁darken	-13068
▁devnet	-13069
▁divide	-13070
▁emphas	-13071
▁meshes	-13072
▁nutzen	-13073
▁objekt	-13074
▁prompt	-13075
▁ratios	-13076
▁retali	-13077
▁scaleX	-13078
▁stylus	-13079
▁tourte	-13080
▁unders	-13081
▁verlor	-13082
Bereichs	-13083
Codefrag	-13084
Progress	-13085
endition	-13086
handling	-13087
ständige	-13088
▁Bestand	-13089
▁Bindest	-13090
▁Clinton	-13091
▁Columns	-13092
▁Einsatz	-13093
▁Germany	-13094
▁Grenzen	-13095
▁Leonard	-13096
▁Magenta	-13097
▁Marquee	-13098
▁Millise	-13099
▁Mindest	-13100
▁Neigung	-13101
▁Recolor	-13102
▁Skelett	-13103
▁Vietnam	-13104
▁Wirkung	-13105
▁Während	-13106
▁Ziffern	-13107
▁ausführ	-13108
▁autoKey	-13109
▁besiegt	-13110
▁bestand	-13111
▁caching	-13112
▁concent	-13113
▁consult	-13114
▁copying	-13115
▁cropped	-13116
▁droplet	-13117
▁durchlä	-13118
▁entsche	-13119
▁gemacht	-13120
▁gültige	-13121
▁hiermit	-13122
▁imports	-13123
▁killing	-13124
▁layered	-13125
▁magenta	-13126
▁masking	-13127
▁nothing	-13128
▁painted	-13129
▁reshape	-13130
▁restart	-13131
▁satelli	-13132
▁welcher	-13133
Selection	-13134
istration	-13135
▁Baseball	-13136
▁Defaults	-13137
▁Dreiecke	-13138
▁Duplikat	-13139
▁Superman	-13140
▁Texturen	-13141
▁Umkehren	-13142
▁begannen	-13143
▁connects	-13144
▁diameter	-13145
▁enclosed	-13146
▁erwartet	-13147
▁filtered	-13148
▁improves	-13149
▁infantry	-13150
▁mögliche	-13151
▁parallel	-13152
▁received	-13153
▁referenz	-13154
▁remember	-13155
▁removing	-13156
▁strikten	-13157
▁tabIndex	-13158
▁textures	-13159
▁tropical	-13160
▁verkette	-13161
▁vertraut	-13162
▁zuordnen	-13163
imentieren	-13164
schlüsseln	-13165
▁Americans	-13166
▁Ausdrucks	-13167
▁Auswahlen	-13168
▁Direction	-13169
▁Druckerei	-13170
▁Einbetten	-13171
▁Focoltone	-13172
▁Formulard	-13173
▁Highlight	-13174
▁Programme	-13175
▁Wiederver	-13176
▁activated	-13177
▁auswirken	-13178
▁authentic	-13179
▁collapsed	-13180
▁producing	-13181
▁realistic	-13182
▁rearrange	-13183
▁triangles	-13184
▁verwerfen	-13185
▁zentralen	-13186
Fotogalerie	-13187
▁Grafikstil	-13188
▁Technology	-13189
▁Umbenennen	-13190
▁beeinträch	-13191
▁bestimmter	-13192
▁commenting	-13193
▁counteratt	-13194
▁electronic	-13195
▁introduced	-13196
▁precedence	-13197
▁preserving	-13198
▁superclass	-13199
Verbindungen	-13200
▁Großbritann	-13201
▁Objektstile	-13202
▁Titelleiste	-13203
▁Verarbeiten	-13204
▁distinguish	-13205
▁niedrigeren	-13206
schlüsselbild	-13207
▁Abweichungen	-13208
▁Pfadsegmente	-13209
▁Transparenze	-13210
▁capabilities	-13211
▁combinations	-13212
▁downsampling	-13213
▁nachzeichnen	-13214
▁presentation	-13215
▁überschreibt	-13216
▁Automatically	-13217
▁Indexposition	-13218
▁Originaldatei	-13219
▁Zeichenfolgen	-13220
▁festzustellen	-13221
▁independently	-13222
▁nebeneinander	-13223
▁zusammenfassen	-13224
▁veranschaulicht	-13225
3.	-13226
32	-13227
37	-13228
44	-13229
61	-13230
bb	-13231
bü	-13232
pc	-13233
001	-13234
Fac	-13235
OMP	-13236
Reg	-13237
ani	-13238
awa	-13239
bau	-13240
bet	-13241
car	-13242
cky	-13243
hof	-13244
ibb	-13245
ita	-13246
jik	-13247
liv	-13248
ola	-13249
wis	-13250
zim	-13251
üll	-13252
▁55	-13253
▁56	-13254
▁75	-13255
▁88	-13256
▁Bö	-13257
▁Ev	-13258
▁IV	-13259
▁Ps	-13260
▁Vo	-13261
▁cu	-13262
▁hy	-13263
▁ik	-13264
LETE	-13265
News	-13266
anke	-13267
arks	-13268
auft	-13269
cade	-13270
drop	-13271
ebox	-13272
erbt	-13273
esar	-13274
hire	-13275
iana	-13276
idge	-13277
ifen	-13278
imer	-13279
irth	-13280
jobo	-13281
mans	-13282
olic	-13283
pare	-13284
pful	-13285
stes	-13286
umes	-13287
utch	-13288
▁0-9	-13289
▁102	-13290
▁13.	-13291
▁Ank	-13292
▁Ari	-13293
▁Arn	-13294
▁CHA	-13295
▁Exc	-13296
▁Law	-13297
▁Ram	-13298
▁Ray	-13299
▁SMS	-13300
▁Sat	-13301
▁Vil	-13302
▁aff	-13303
▁mas	-13304
▁mph	-13305
▁mur	-13306
▁sus	-13307
▁vic	-13308
Stile	-13309
abase	-13310
achte	-13311
atern	-13312
besch	-13313
chors	-13314
cking	-13315
iente	-13316
iered	-13317
inden	-13318
index	-13319
ineon	-13320
inois	-13321
isses	-13322
itual	-13323
kchen	-13324
known	-13325
lates	-13326
odies	-13327
olien	-13328
orama	-13329
ourne	-13330
riech	-13331
rikan	-13332
sicht	-13333
throp	-13334
vered	-13335
▁1939	-13336
▁1968	-13337
▁1993	-13338
▁Bert	-13339
▁Cath	-13340
▁Dunk	-13341
▁Lake	-13342
▁Quar	-13343
▁Skla	-13344
▁bran	-13345
▁cost	-13346
▁flip	-13347
▁gaps	-13348
▁getP	-13349
▁gren	-13350
▁male	-13351
▁mism	-13352
▁nort	-13353
▁poin	-13354
▁ring	-13355
▁sulf	-13356
▁tick	-13357
▁went	-13358
▁whal	-13359
▁wire	-13360
Benutz	-13361
XPress	-13362
altete	-13363
alties	-13364
anging	-13365
artete	-13366
ettung	-13367
hieren	-13368
isters	-13369
jikumi	-13370
körper	-13371
lative	-13372
prints	-13373
quival	-13374
ramati	-13375
saurus	-13376
unkelt	-13377
▁Außen	-13378
▁Baron	-13379
▁Beach	-13380
▁Befes	-13381
▁Bilde	-13382
▁Blatt	-13383
▁Davis	-13384
▁Folie	-13385
▁Gesam	-13386
▁Glätt	-13387
▁Kampf	-13388
▁Liber	-13389
▁Miami	-13390
▁Psych	-13391
▁Reich	-13392
▁Schär	-13393
▁Speed	-13394
▁Storm	-13395
▁Tasks	-13396
▁blieb	-13397
▁broke	-13398
▁death	-13399
▁flows	-13400
▁holds	-13401
▁human	-13402
▁query	-13403
▁reprä	-13404
▁revis	-13405
▁serve	-13406
▁setup	-13407
▁starb	-13408
▁throw	-13409
▁tries	-13410
▁ultim	-13411
▁yield	-13412
Context	-13413
Element	-13414
Koordin	-13415
OMPLETE	-13416
Profile	-13417
Propert	-13418
addPage	-13419
bildung	-13420
breiten	-13421
deckung	-13422
erneath	-13423
izierte	-13424
ocation	-13425
ochrome	-13426
ologist	-13427
ontroll	-13428
ouverne	-13429
versatz	-13430
▁Batman	-13431
▁Brosch	-13432
▁Claudi	-13433
▁Daniel	-13434
▁Engine	-13435
▁Figure	-13436
▁Heraus	-13437
▁Johnny	-13438
▁Klonen	-13439
▁Lucius	-13440
▁Morgan	-13441
▁Pakets	-13442
▁Recogn	-13443
▁Samuel	-13444
▁Schutz	-13445
▁Tables	-13446
▁Wortes	-13447
▁battle	-13448
▁caused	-13449
▁circum	-13450
▁closes	-13451
▁commas	-13452
▁distin	-13453
▁escape	-13454
▁expiry	-13455
▁korean	-13456
▁legacy	-13457
▁matter	-13458
▁protes	-13459
▁succes	-13460
▁verwir	-13461
Computer	-13462
Function	-13463
atibilit	-13464
ausdruck	-13465
describe	-13466
enträger	-13467
förmigen	-13468
grafiken	-13469
konturen	-13470
meldungs	-13471
waltungs	-13472
zunehmen	-13473
▁Ablegen	-13474
▁Company	-13475
▁Deutsch	-13476
▁Domänen	-13477
▁Inverse	-13478
▁Pacific	-13479
▁Rastern	-13480
▁Spanish	-13481
▁Toolkit	-13482
▁anchors	-13483
▁aufruft	-13484
▁battles	-13485
▁causing	-13486
▁challen	-13487
▁contour	-13488
▁divided	-13489
▁examine	-13490
▁expands	-13491
▁getArea	-13492
▁helpful	-13493
▁inneren	-13494
▁invaded	-13495
▁konnten	-13496
▁langsam	-13497
▁natural	-13498
▁protect	-13499
▁retains	-13500
▁sorting	-13501
▁species	-13502
▁unnamed	-13503
▁versamm	-13504
Attribute	-13505
bereichen	-13506
generated	-13507
inematics	-13508
▁Abhängig	-13509
▁Contains	-13510
▁Druckvor	-13511
▁Gefangen	-13512
▁Hardware	-13513
▁Illinois	-13514
▁Konflikt	-13515
▁Oklahoma	-13516
▁Pakistan	-13517
▁Patriots	-13518
▁Pfadtext	-13519
▁SoundFac	-13520
▁Spelling	-13521
▁altering	-13522
▁auslösen	-13523
▁backward	-13524
▁besitzen	-13525
▁database	-13526
▁doppelte	-13527
▁eingesch	-13528
▁eroberte	-13529
▁executes	-13530
▁gefilter	-13531
▁knockout	-13532
▁kodieren	-13533
▁operands	-13534
▁redefine	-13535
▁resigned	-13536
▁schweben	-13537
▁soldiers	-13538
▁suffered	-13539
▁verlangs	-13540
joboptions	-13541
werkzeugen	-13542
▁Arbeitsab	-13543
▁Austausch	-13544
▁Bildgröße	-13545
▁Differenz	-13546
▁Extension	-13547
▁Komponent	-13548
▁Kriterien	-13549
▁Messskala	-13550
▁Mitarbeit	-13551
▁Rendering	-13552
▁Verzerren	-13553
▁abgerufen	-13554
▁algorithm	-13555
▁appearing	-13556
▁assigning	-13557
▁beschrieb	-13558
▁certified	-13559
▁completed	-13560
▁designers	-13561
▁enclosure	-13562
▁erheblich	-13563
▁gerastert	-13564
▁geschützt	-13565
▁initiator	-13566
▁maskierte	-13567
▁preferred	-13568
▁premiered	-13569
▁signieren	-13570
▁something	-13571
▁touchdown	-13572
▁verzerren	-13573
speicherung	-13574
▁Aussparung	-13575
▁Department	-13576
▁Menüleiste	-13577
▁Unabhängig	-13578
▁captioning	-13579
▁convenient	-13580
▁decreasing	-13581
▁definierte	-13582
▁entwickeln	-13583
▁hyperlinks	-13584
▁identifies	-13585
▁mathematic	-13586
▁monochrome	-13587
▁regelmäßig	-13588
▁simplifies	-13589
▁underneath	-13590
▁unterteilt	-13591
▁Alphakanäle	-13592
▁Entwicklung	-13593
▁Mississippi	-13594
▁QuarkXPress	-13595
▁Schriftgrad	-13596
▁Textzeichen	-13597
▁ausgecheckt	-13598
▁hexadecimal	-13599
▁positioning	-13600
▁rechteckige	-13601
▁schwarzweiß	-13602
▁wichtigsten	-13603
konvertierung	-13604
▁Malwerkzeuge	-13605
▁Maßeinheiten	-13606
▁Pennsylvania	-13607
▁Prozessfarbe	-13608
▁Seitenformat	-13609
▁angewendeten	-13610
▁installation	-13611
▁Überlagerung	-13612
InterfaceProxy	-13613
meldungsleiste	-13614
▁Bedienfeldern	-13615
▁Formatierungs	-13616
▁Millisekunden	-13617
▁Speicherorten	-13618
▁Verarbeitungs	-13619
▁interactivity	-13620
▁Liniensegmente	-13621
▁Tabellenformat	-13622
▁Tonwertbereich	-13623
▁Übergangspunkt	-13624
Richtliniendatei	-13625
▁Arbeitsbereichs	-13626
▁Arbeitsspeicher	-13627
▁Ausgabeoptionen	-13628
▁Bildlaufleisten	-13629
2.	-13630
59	-13631
cf	-13632
js	-13633
008	-13634
255	-13635
Ins	-13636
Ord	-13637
ano	-13638
bat	-13639
doc	-13640
erm	-13641
ima	-13642
pal	-13643
pot	-13644
rot	-13645
rte	-13646
sta	-13647
tee	-13648
ths	-13649
txt	-13650
wei	-13651
▁GB	-13652
▁Od	-13653
Rect	-13654
aign	-13655
amed	-13656
avel	-13657
gert	-13658
iliz	-13659
ishe	-13660
itzt	-13661
korb	-13662
leys	-13663
lägt	-13664
oded	-13665
oppt	-13666
plan	-13667
rawn	-13668
stab	-13669
stop	-13670
urer	-13671
zept	-13672
▁0,0	-13673
▁0.0	-13674
▁23.	-13675
▁64-	-13676
▁Adj	-13677
▁Bab	-13678
▁CSV	-13679
▁Dev	-13680
▁Flü	-13681
▁Gab	-13682
▁Low	-13683
▁Mil	-13684
▁Mol	-13685
▁OOP	-13686
▁Rul	-13687
▁Tas	-13688
▁Ung	-13689
▁Wac	-13690
▁bor	-13691
▁ded	-13692
▁gro	-13693
▁inj	-13694
▁kne	-13695
▁mal	-13696
▁mir	-13697
▁nom	-13698
▁nor	-13699
▁nov	-13700
▁via	-13701
Multi	-13702
anken	-13703
anzer	-13704
ching	-13705
cient	-13706
cuted	-13707
eidet	-13708
elles	-13709
endar	-13710
enson	-13711
esser	-13712
ipped	-13713
kette	-13714
kture	-13715
olden	-13716
osoph	-13717
ossen	-13718
ounts	-13719
pfade	-13720
ritts	-13721
stück	-13722
ureau	-13723
veled	-13724
▁1979	-13725
▁216-	-13726
▁Belg	-13727
▁Chat	-13728
▁Cold	-13729
▁Enzy	-13730
▁Graf	-13731
▁Kamp	-13732
▁Schm	-13733
▁Sieg	-13734
▁Simp	-13735
▁Skew	-13736
▁Somm	-13737
▁Trig	-13738
▁Trop	-13739
▁Walt	-13740
▁Wiki	-13741
▁Wire	-13742
▁coll	-13743
▁days	-13744
▁deep	-13745
▁flat	-13746
▁hund	-13747
▁node	-13748
▁nord	-13749
▁prak	-13750
▁pull	-13751
▁purs	-13752
▁russ	-13753
▁sand	-13754
▁sinn	-13755
▁warp	-13756
▁weak	-13757
Height	-13758
System	-13759
alions	-13760
besser	-13761
hentif	-13762
icated	-13763
ikator	-13764
itäten	-13765
liffen	-13766
lusion	-13767
lätter	-13768
melden	-13769
weiten	-13770
▁Again	-13771
▁Binär	-13772
▁Build	-13773
▁Dinge	-13774
▁Dreht	-13775
▁Earth	-13776
▁Greek	-13777
▁Indem	-13778
▁Inspe	-13779
▁Jacob	-13780
▁Korre	-13781
▁Magne	-13782
▁Onion	-13783
▁Scann	-13784
▁Schwe	-13785
▁Stein	-13786
▁Streu	-13787
▁Texts	-13788
▁Verzw	-13789
▁chrom	-13790
▁comes	-13791
▁dauer	-13792
▁delim	-13793
▁fests	-13794
▁hielt	-13795
▁pitch	-13796
▁recru	-13797
▁repar	-13798
▁satis	-13799
▁schär	-13800
▁wirft	-13801
▁withd	-13802
▁young	-13803
aletten	-13804
alteten	-13805
ighting	-13806
lierten	-13807
ributen	-13808
schläge	-13809
tsetzen	-13810
umbered	-13811
▁Assets	-13812
▁Audiod	-13813
▁Bezier	-13814
▁Brüche	-13815
▁Bucket	-13816
▁Columb	-13817
▁Dateis	-13818
▁Dienst	-13819
▁Ersten	-13820
▁Finish	-13821
▁Fleder	-13822
▁Folgen	-13823
▁Füllen	-13824
▁Hexade	-13825
▁Karten	-13826
▁Kursiv	-13827
▁Messen	-13828
▁Moving	-13829
▁Männer	-13830
▁Norden	-13831
▁Rulers	-13832
▁Temple	-13833
▁Wilson	-13834
▁Winter	-13835
▁anfäng	-13836
▁bemerk	-13837
▁bowled	-13838
▁druckt	-13839
▁exceed	-13840
▁failed	-13841
▁female	-13842
▁hatten	-13843
▁indire	-13844
▁kritis	-13845
▁manner	-13846
▁naming	-13847
▁nichts	-13848
▁reveal	-13849
▁season	-13850
▁slowly	-13851
▁titles	-13852
▁Ändert	-13853
Vorlagen	-13854
Zertifik	-13855
ichteten	-13856
izations	-13857
ological	-13858
operator	-13859
utorials	-13860
zulassen	-13861
▁Abfrage	-13862
▁Creator	-13863
▁Designs	-13864
▁Feldern	-13865
▁Häkchen	-13866
▁Kingdom	-13867
▁Legende	-13868
▁Matches	-13869
▁Nächste	-13870
▁Sitzung	-13871
▁Steuert	-13872
▁Tornado	-13873
▁Touchup	-13874
▁Umfasst	-13875
▁Vertrau	-13876
▁ablegen	-13877
▁closely	-13878
▁distort	-13879
▁encrypt	-13880
▁gefragt	-13881
▁gekache	-13882
▁glätten	-13883
▁greatly	-13884
▁hundred	-13885
▁justify	-13886
▁padding	-13887
▁sources	-13888
▁stoppen	-13889
▁tweenen	-13890
▁visitor	-13891
Namespace	-13892
apsulated	-13893
available	-13894
icherheit	-13895
ommentare	-13896
tellungen	-13897
umeration	-13898
▁Artiller	-13899
▁Blending	-13900
▁Changing	-13901
▁Choosing	-13902
▁Clicking	-13903
▁Enhanced	-13904
▁Entfernt	-13905
▁Farbwert	-13906
▁Menschen	-13907
▁Sichtbar	-13908
▁Streifen	-13909
▁Strength	-13910
▁Toolbars	-13911
▁Umgebung	-13912
▁Zielpfad	-13913
▁Zunächst	-13914
▁arbeitet	-13915
▁captions	-13916
▁drawings	-13917
▁expanded	-13918
▁explains	-13919
▁geringer	-13920
▁kopierte	-13921
▁occasion	-13922
▁previews	-13923
▁regiment	-13924
▁römische	-13925
▁schließt	-13926
▁snippets	-13927
▁verzerrt	-13928
▁weiterer	-13929
öffentlich	-13930
▁Available	-13931
▁Customize	-13932
▁Farbtönen	-13933
▁Pixelmaße	-13934
▁Selective	-13935
▁Therefore	-13936
▁Vorschauf	-13937
▁Wolverine	-13938
▁abbrechen	-13939
▁abgerunde	-13940
▁artillery	-13941
▁distances	-13942
▁druckbare	-13943
▁einzelner	-13944
▁fehlenden	-13945
▁positiven	-13946
▁rasterize	-13947
▁recovered	-13948
▁replacing	-13949
▁separates	-13950
▁symbolism	-13951
▁verbesser	-13952
▁verlieren	-13953
▁vertrauen	-13954
▁überlappt	-13955
Reihenfolge	-13956
anweisungen	-13957
▁Brennweite	-13958
▁Farbregler	-13959
▁Signatures	-13960
▁Typewriter	-13961
▁asiatische	-13962
▁connecting	-13963
▁controlled	-13964
▁customized	-13965
▁depression	-13966
▁disappears	-13967
▁dissipated	-13968
▁encryption	-13969
▁Ereignisses	-13970
▁Hexadezimal	-13971
▁Perspective	-13972
▁Seitengröße	-13973
▁Textrahmens	-13974
▁attachments	-13975
▁development	-13976
▁durchlaufen	-13977
▁enthaltenen	-13978
▁extrahieren	-13979
▁indizierten	-13980
▁marschierte	-13981
▁surrendered	-13982
▁verkleinert	-13983
▁überdrucken	-13984
▁Bitmapbilder	-13985
▁Einstellungs	-13986
▁Grafiksymbol	-13987
▁Kombinations	-13988
▁Markierungen	-13989
▁Rahmenkanten	-13990
▁ShaderFilter	-13991
▁französische	-13992
▁hierarchical	-13993
▁intermediate	-13994
▁intersection	-13995
▁unseparierte	-13996
▁zertifiziert	-13997
▁Halbtonraster	-13998
▁Liniensegment	-13999
▁Neuberechnung	-14000
▁reproduzieren	-14001
▁Arbeitsabläufe	-14002
▁Großbritannien	-14003
▁barrierefreien	-14004
▁kontinuierlich	-14005
▁Rechtschreibung	-14006
▁perspektivische	-14007
13	-14008
43	-14009
AN	-14010
BE	-14011
SF	-14012
za	-14013
-16	-14014
App	-14015
Inf	-14016
alo	-14017
bow	-14018
haw	-14019
hde	-14020
hew	-14021
hos	-14022
ios	-14023
jet	-14024
kie	-14025
kin	-14026
olf	-14027
run	-14028
tei	-14029
uan	-14030
uzz	-14031
üge	-14032
▁51	-14033
▁AN	-14034
▁Jr	-14035
▁Oh	-14036
▁Ty	-14037
▁Zy	-14038
▁km	-14039
.264	-14040
4011	-14041
Bone	-14042
Case	-14043
Lehr	-14044
achs	-14045
agon	-14046
anen	-14047
asts	-14048
book	-14049
dney	-14050
eign	-14051
elbe	-14052
hood	-14053
lion	-14054
lymp	-14055
nahm	-14056
oard	-14057
ouri	-14058
phia	-14059
reck	-14060
umed	-14061
▁176	-14062
▁177	-14063
▁21.	-14064
▁22.	-14065
▁800	-14066
▁ABC	-14067
▁CID	-14068
▁DNG	-14069
▁Dod	-14070
▁Fig	-14071
▁Hob	-14072
▁IEE	-14073
▁Kub	-14074
▁PSB	-14075
▁Pla	-14076
▁Put	-14077
▁Rab	-14078
▁Rub	-14079
▁SSL	-14080
▁Sau	-14081
▁Sea	-14082
▁Son	-14083
▁Stu	-14084
▁Tam	-14085
▁ZIP	-14086
▁blo	-14087
▁dog	-14088
▁hum	-14089
▁que	-14090
▁sho	-14091
Farbe	-14092
Width	-14093
achus	-14094
addle	-14095
andid	-14096
bench	-14097
bines	-14098
booth	-14099
count	-14100
derte	-14101
elson	-14102
eomet	-14103
error	-14104
essee	-14105
graph	-14106
heads	-14107
ifies	-14108
iplom	-14109
isely	-14110
istic	-14111
itzer	-14112
kante	-14113
karte	-14114
kript	-14115
leife	-14116
lungs	-14117
oning	-14118
oster	-14119
raged	-14120
rateg	-14121
ruppe	-14122
schte	-14123
sized	-14124
typen	-14125
zeugt	-14126
▁1950	-14127
▁1951	-14128
▁1965	-14129
▁1972	-14130
▁1987	-14131
▁Berg	-14132
▁Burn	-14133
▁Chem	-14134
▁Dick	-14135
▁Engl	-14136
▁Hans	-14137
▁Harb	-14138
▁Hohe	-14139
▁Holz	-14140
▁Kent	-14141
▁Khan	-14142
▁Marc	-14143
▁News	-14144
▁Real	-14145
▁Rico	-14146
▁Role	-14147
▁Spur	-14148
▁Taif	-14149
▁That	-14150
▁Ther	-14151
▁Tone	-14152
▁Trim	-14153
▁Weit	-14154
▁auss	-14155
▁casu	-14156
▁conj	-14157
▁cuts	-14158
▁depi	-14159
▁gute	-14160
▁herk	-14161
▁idea	-14162
▁iron	-14163
▁mail	-14164
▁omit	-14165
▁plot	-14166
▁poly	-14167
▁scru	-14168
▁talk	-14169
▁typh	-14170
▁weil	-14171
▁year	-14172
Rahmen	-14173
browse	-14174
ctures	-14175
gesamt	-14176
global	-14177
hebung	-14178
lauben	-14179
leidet	-14180
prache	-14181
rating	-14182
rieden	-14183
rovers	-14184
titled	-14185
titude	-14186
tstift	-14187
utzung	-14188
▁Agric	-14189
▁Brown	-14190
▁Diego	-14191
▁Faden	-14192
▁Feind	-14193
▁Grant	-14194
▁Leser	-14195
▁Lists	-14196
▁Roger	-14197
▁Saves	-14198
▁Sigma	-14199
▁Steve	-14200
▁Title	-14201
▁aster	-14202
▁brach	-14203
▁compe	-14204
▁downs	-14205
▁ended	-14206
▁fails	-14207
▁fired	-14208
▁glass	-14209
▁ihres	-14210
▁innen	-14211
▁kamen	-14212
▁lokal	-14213
▁psych	-14214
▁semic	-14215
▁stays	-14216
▁teilt	-14217
▁threw	-14218
▁tones	-14219
▁umben	-14220
▁versa	-14221
▁whole	-14222
▁wählt	-14223
Vorlage	-14224
alitäts	-14225
entwick	-14226
ffekten	-14227
kompati	-14228
liziert	-14229
objekts	-14230
ositing	-14231
platten	-14232
riebene	-14233
rischen	-14234
strings	-14235
▁Ausmaß	-14236
▁Caesar	-14237
▁Cineon	-14238
▁Europa	-14239
▁Forces	-14240
▁Invert	-14241
▁Kaiser	-14242
▁Legion	-14243
▁Lichts	-14244
▁Linked	-14245
▁Miller	-14246
▁Random	-14247
▁Region	-14248
▁Sydney	-14249
▁Verbie	-14250
▁accura	-14251
▁aligns	-14252
▁assass	-14253
▁binden	-14254
▁commit	-14255
▁decide	-14256
▁engine	-14257
▁festen	-14258
▁fought	-14259
▁hiding	-14260
▁hosted	-14261
▁legend	-14262
▁murder	-14263
▁planes	-14264
▁resume	-14265
▁ruling	-14266
▁scaleY	-14267
▁scharf	-14268
AsBitmap	-14269
Explorer	-14270
Multiple	-14271
NewsWire	-14272
adelphia	-14273
alierung	-14274
cheidung	-14275
ennummer	-14276
gressive	-14277
ibilität	-14278
laborate	-14279
vorgangs	-14280
▁Address	-14281
▁Aspekte	-14282
▁Britain	-14283
▁Contact	-14284
▁Defines	-14285
▁Firefox	-14286
▁Francis	-14287
▁Journal	-14288
▁Klammer	-14289
▁Militär	-14290
▁Program	-14291
▁Runtime	-14292
▁Schwärz	-14293
▁Summary	-14294
▁Toleran	-14295
▁attacks	-14296
▁ausgest	-14297
▁brigade	-14298
▁collect	-14299
▁detects	-14300
▁eastern	-14301
▁filtern	-14302
▁genannt	-14303
▁generic	-14304
▁glatter	-14305
▁herkömm	-14306
▁hotspot	-14307
▁inverse	-14308
▁kinsoku	-14309
▁konzent	-14310
▁manages	-14311
▁merging	-14312
▁rastern	-14313
▁schwere	-14314
▁setSize	-14315
▁student	-14316
▁succeed	-14317
▁torpedo	-14318
▁turning	-14319
▁verteid	-14320
▁zweimal	-14321
Versionen	-14322
animation	-14323
gestellte	-14324
protokoll	-14325
sequenzen	-14326
tierungen	-14327
▁Arbeitsp	-14328
▁Catholic	-14329
▁Debuggen	-14330
▁Embedded	-14331
▁Franklin	-14332
▁Missouri	-14333
▁Protokol	-14334
▁Schleife	-14335
▁Valerius	-14336
▁Victoria	-14337
▁Williams	-14338
▁Zeichnet	-14339
▁ernannte	-14340
▁lossless	-14341
▁neuesten	-14342
▁ordnungs	-14343
▁powerful	-14344
▁recorded	-14345
▁sinnvoll	-14346
▁smoother	-14347
▁speziell	-14348
▁tweening	-14349
▁verweist	-14350
▁withdrew	-14351
Networking	-14352
alkulation	-14353
arbeiteten	-14354
networking	-14355
ransparenz	-14356
▁Buchdatei	-14357
▁ByteArray	-14358
▁Datenbank	-14359
▁Enclosure	-14360
▁Favoriten	-14361
▁IGraphics	-14362
▁Platziert	-14363
▁Speichert	-14364
▁Tennessee	-14365
▁Textgröße	-14366
▁Threshold	-14367
▁Verläufen	-14368
▁Workflows	-14369
▁completes	-14370
▁dauerhaft	-14371
▁extracted	-14372
▁installer	-14373
▁isolieren	-14374
▁northeast	-14375
▁precisely	-14376
▁religious	-14377
▁retreated	-14378
▁trackback	-14379
▁vorkommen	-14380
▁Attributes	-14381
▁DropShadow	-14382
▁Fadenkreuz	-14383
▁Mitglieder	-14384
▁Papierkorb	-14385
▁Publishers	-14386
▁Revolution	-14387
▁SampleCode	-14388
▁Soundbooth	-14389
▁applicable	-14390
▁autoKeyNav	-14391
▁beinhaltet	-14392
▁britischen	-14393
▁getweenten	-14394
▁maintained	-14395
▁namespaces	-14396
▁resampling	-14397
▁unbenannte	-14398
▁verbleiben	-14399
▁wesentlich	-14400
▁zuzulassen	-14401
seinstellung	-14402
▁Anmerkungen	-14403
▁Beschnittzu	-14404
▁Farbgruppen	-14405
▁Gruppierung	-14406
▁NetNewsWire	-14407
▁Querschnitt	-14408
▁Reduzierung	-14409
▁SoundFacade	-14410
▁Variationen	-14411
▁beeinflusst	-14412
▁controlling	-14413
▁entscheiden	-14414
▁erleichtert	-14415
▁interpreted	-14416
▁nummerierte	-14417
▁superscript	-14418
▁umzuwandeln	-14419
▁Audiodateien	-14420
▁Beschneidung	-14421
▁Ebenenmasken	-14422
▁Philadelphia	-14423
▁Verteidigung	-14424
▁bufferingBar	-14425
▁geospatially	-14426
▁marschierten	-14427
▁milliseconds	-14428
▁registrieren	-14429
▁transforming	-14430
▁vergewissern	-14431
▁verschlüssel	-14432
▁Überprüfungs	-14433
▁Ergebnisfarbe	-14434
▁Formulardaten	-14435
▁Hyperlinktext	-14436
▁Programmierer	-14437
▁Unterschrifts	-14438
▁alternatively	-14439
▁counterattack	-14440
▁französischen	-14441
▁interpolation	-14442
▁kommunizieren	-14443
▁ordnungsgemäß	-14444
▁tatsächlichen	-14445
▁zurückgesetzt	-14446
EventDispatcher	-14447
▁Funktionalität	-14448
▁Seitenminiatur	-14449
▁ausgeschnitten	-14450
▁metacharacters	-14451
▁Bildbearbeitung	-14452
▁Druckproduktion	-14453
▁Ereignisobjekts	-14454
▁Rückrufmethoden	-14455
▁Seitenübergänge	-14456
ER	-14457
yo	-14458
ße	-14459
öt	-14460
Dre	-14461
NGE	-14462
Res	-14463
VSS	-14464
agh	-14465
edy	-14466
irs	-14467
kam	-14468
mir	-14469
nel	-14470
omy	-14471
ora	-14472
pur	-14473
ryp	-14474
tml	-14475
urg	-14476
öhn	-14477
▁6.	-14478
▁64	-14479
▁89	-14480
▁AD	-14481
▁Il	-14482
▁af	-14483
▁eu	-14484
▁är	-14485
Back	-14486
Oper	-14487
Over	-14488
Pane	-14489
Ress	-14490
arfe	-14491
asen	-14492
bled	-14493
emon	-14494
fade	-14495
held	-14496
hten	-14497
ican	-14498
iede	-14499
ivid	-14500
list	-14501
olle	-14502
oons	-14503
pons	-14504
radi	-14505
rane	-14506
rick	-14507
rink	-14508
size	-14509
terk	-14510
test	-14511
wehr	-14512
ytes	-14513
ümer	-14514
üsse	-14515
▁17.	-14516
▁26.	-14517
▁Abt	-14518
▁Ale	-14519
▁Bah	-14520
▁Cub	-14521
▁DVD	-14522
▁God	-14523
▁Guy	-14524
▁Hun	-14525
▁Kri	-14526
▁Liz	-14527
▁Mos	-14528
▁Mur	-14529
▁Mys	-14530
▁Non	-14531
▁Pot	-14532
▁Pur	-14533
▁RSA	-14534
▁Slo	-14535
▁Ted	-14536
▁Ten	-14537
▁Tog	-14538
▁abw	-14539
▁dou	-14540
▁fib	-14541
▁hur	-14542
▁phr	-14543
▁pin	-14544
▁ram	-14545
▁une	-14546
▁wed	-14547
▁why	-14548
anies	-14549
auber	-14550
blick	-14551
brech	-14552
burgh	-14553
clips	-14554
elnet	-14555
ences	-14556
entin	-14557
fälle	-14558
igent	-14559
inner	-14560
lings	-14561
links	-14562
netes	-14563
ories	-14564
oured	-14565
owers	-14566
ptive	-14567
rance	-14568
rides	-14569
stoff	-14570
umula	-14571
ützte	-14572
▁1967	-14573
[...]
